{"zu": 16950, "hilary": 22744, "##ging": 4726, "richards": 9712, "1642": 24061, "shoot": 5607, "\u05e5": 1262, "##ando": 28574, "hui": 17504, "horizontally": 23190, "rent": 9278, "francs": 24313, "##ac": 6305, "thierry": 26413, "##em": 6633, "mcmillan": 27436, "lineup": 10515, "restrictions": 9259, "lu": 11320, "512": 24406, "nicknamed": 9919, "padma": 23731, "responded": 5838, "earned": 3687, "\u0648": 1298, "singles": 3895, "ends": 4515, "pro": 4013, "courtney": 14139, "1779": 17616, "mildly": 19499, "pacific": 3534, "lee": 3389, "shan": 17137, "examine": 11628, "reminds": 15537, "disco": 12532, "\u2033": 1532, "unseen": 16100, "##ore": 5686, "peters": 12420, "maintenance": 6032, "##\u8fb6": 30482, "rosen": 21701, "positive": 3893, "care": 2729, "everest": 23914, "bows": 21207, "[unused252]": 257, "thereby": 8558, "blond": 8855, "before": 2077, "redundant": 21707, "defeat": 4154, "glands": 23340, "but": 2021, "ralph": 6798, "triad": 25355, "kowalski": 28874, "##\u3088": 30210, "disappears": 17144, "mail": 5653, "compression": 13379, "##utz": 20267, "dauphin": 29102, "enzymes": 16285, "spill": 14437, "ryder": 11731, "buffalo": 6901, "scripture": 18919, "##\u98a8": 30503, "surveys": 12265, "messiah": 22112, "##cular": 15431, "xiv": 15939, "[unused725]": 730, "\u092d": 1330, "hassan": 13222, "punishments": 29115, "res": 24501, "\u1174": 1482, "favor": 5684, "stone": 2962, "parchment": 22433, "##feld": 8151, "jensen": 14857, "##drich": 23335, "##ym": 24335, "image": 3746, "marrying": 13516, "butcher": 14998, "##dp": 18927, "1728": 26833, "turkey": 4977, "##sity": 17759, "tinged": 22683, "parachute": 13561, "hybrid": 8893, "[unused730]": 735, "defective": 28829, "witch": 6965, "approved": 4844, "quick": 4248, "protein": 5250, "##anial": 27532, "##rued": 28551, "##ych": 17994, "xx": 22038, "holidays": 11938, "llc": 11775, "wa": 11333, "goat": 13555, "1500": 10347, "calcium": 13853, "##nable": 22966, "gee": 20277, "ceiling": 5894, "##\u09be": 29914, "merits": 22617, "tasha": 25448, "centenary": 17705, "##cta": 25572, "\u99ac": 1980, "catalog": 12105, "situation": 3663, "##\u09a7": 29901, "[MASK]": 103, "guardian": 6697, "translation": 5449, "envisioned": 18035, "handel": 21465, "portrayal": 13954, "neumann": 22860, "highlighted": 11548, "##\u043d": 18947, "characterized": 7356, "cradle": 18293, "fitzgerald": 11864, "\u1d48": 1498, "djs": 23837, "##osta": 28696, "##isse": 23491, "identification": 8720, "freeing": 22198, "rs": 12667, "galloway": 22372, "ronnie": 11688, "sirius": 23466, "##ua": 6692, "attacks": 4491, "bar": 3347, "[unused844]": 849, "##ization": 3989, "asher": 17243, "squad": 4686, "transporting": 18276, "rajasthan": 16815, "##hey": 14844, "sykes": 23531, "[unused162]": 167, "galley": 27124, "##ark": 17007, "toby": 11291, "trusts": 20278, "kei": 26679, "assaulted": 17536, "raion": 24235, "\u7248": 1907, "snarled": 15022, "gravitational": 19790, "##dh": 16425, "proceed": 10838, "onward": 15834, "##ivation": 25761, "[unused675]": 680, "tuned": 15757, "suburban": 9282, "hears": 14994, "illegitimate": 18102, "incentive": 20438, "##mme": 20058, "stirred": 13551, "##nan": 7229, "##je": 6460, "##lino": 25226, "demonstrators": 28337, "additional": 3176, "##rained": 27361, "skeptical": 18386, "glue": 25238, "bird": 4743, "floated": 13715, "murmur": 20227, "audience": 4378, "reproduction": 14627, "change": 2689, "angrily": 14136, "\u0142odz": 17814, "importance": 5197, "tags": 22073, "dow": 23268, "hellenistic": 27464, "##kor": 21815, "##ha": 3270, "platt": 28005, "harris": 5671, "1605": 28202, "principals": 27928, "turbines": 17396, "marino": 17185, "ling": 17002, "overturned": 17068, "201": 16345, "obligation": 14987, "hamish": 28859, "mri": 27011, "##wara": 11872, "favorable": 11119, "\u0e01": 1409, "##our": 8162, "tonnes": 11000, "flattened": 16379, "shrink": 22802, "\u3064": 1664, "##atable": 27892, "emanuel": 21135, "hess": 23484, "bouts": 23666, "##section": 29015, "##\u03c3": 29733, "charms": 24044, "grammatical": 24402, "camille": 16675, "##eles": 26741, "##\u0435": 15290, "diploma": 9827, "comparable": 12435, "[unused979]": 984, "sandra": 12834, "morally": 28980, "mckinley": 22121, "braun": 21909, "examines": 20798, "sneak": 13583, "coughed": 19055, "excavations": 14018, "##dome": 26173, "howling": 22298, "displeasure": 28606, "[unused240]": 245, "inherited": 7900, "##\u677e": 30406, "ie": 29464, "nicky": 20158, "1973": 3381, "##hot": 12326, "extremely": 5186, "mana": 24951, "superior": 6020, "crowned": 10249, "\u4eee": 1761, "189": 20500, "pilots": 8221, "spartan": 20670, "afro": 17694, "luminous": 25567, "locals": 10575, "resting": 8345, "forrest": 16319, "leo": 6688, "dealings": 24069, "171": 18225, "carlo": 9758, "caroline": 7981, "##udi": 21041, "##tered": 14050, "clinging": 17892, "capacity": 3977, "##oue": 27872, "grasses": 21620, "austro": 16951, "knee": 6181, "cubic": 11919, "fifth": 3587, "scripts": 14546, "##org": 21759, "hardin": 27522, "until": 2127, "urdu": 12454, "##ears": 26492, "implying": 20242, "blade": 6085, "##pods": 22925, "clung": 14752, "oh": 2821, "wolf": 4702, "##bria": 21556, "lasted": 6354, "##\u06a9": 29841, "kc": 21117, "##eased": 25063, "headmaster": 16296, "senators": 10153, "continuing": 5719, "ek": 23969, "benito": 23595, "refers": 5218, "apes": 27754, "lobes": 24423, "[unused801]": 806, "commotion": 23960, "ranks": 6938, "1930s": 5687, "1635": 27426, "ladder": 10535, "xbox": 12202, "breathless": 16701, "##ning": 5582, "hallmark": 25812, "fitness": 10516, "bobbed": 29579, "danny": 6266, "install": 16500, "lid": 11876, "##olate": 19425, "synthesizer": 13564, "algebra": 11208, "bodily": 20445, "##press": 20110, "meteor": 23879, "##illon": 20343, "chalk": 16833, "reformation": 13708, "compartment": 15273, "pleasant": 8242, "##jected": 24455, "very": 2200, "sire": 15785, "baha": 13253, "tingle": 25792, "joking": 16644, "##yu": 10513, "beings": 9552, "\u68ee": 1882, "##\u533a": 30308, "\u0bae": 1389, "powerful": 3928, "anthologies": 25675, "deceased": 10181, "climbing": 8218, "peculiar": 14099, "dropped": 3333, "sui": 24086, "rustling": 29188, "\u304d": 1652, "shillings": 29332, "rags": 26346, "various": 2536, "reflect": 8339, "rebuilt": 7183, "stating": 5517, "arnold": 7779, "album": 2201, "attracts": 17771, "feminist": 10469, "##cap": 17695, "touched": 5028, "patents": 13979, "lange": 21395, "##\u208a": 30086, "nor": 4496, "endorsed": 11763, "malacca": 28481, "alarmed": 19260, "carnegie": 11298, "independence": 4336, "contiguous": 25177, "##ouse": 15441, "corn": 9781, "[unused124]": 129, "strengthening": 16003, "soul": 3969, "640": 19714, "escort": 8620, "seized": 8243, "##llah": 18599, "tool": 6994, "groaning": 24781, "doug": 8788, "romantic": 6298, "mont": 18318, "209": 19348, "scans": 27404, "nearby": 3518, "cd": 3729, "sparhawk": 13709, "tourists": 9045, "republics": 24822, "[unused552]": 557, "bottom": 3953, "educated": 5161, "writings": 7896, "aging": 12520, "##sive": 12742, "alphabet": 12440, "donald": 6221, "mage": 17454, "ram": 8223, "bloody": 6703, "abolitionist": 29554, "smackdown": 22120, "##\u2097": 30095, "1650": 21875, "tarzan": 24566, "doncaster": 18895, "icon": 12696, "##co": 3597, "fugitive": 21329, "114": 12457, "elder": 6422, "operated": 3498, "w": 1059, "seth": 6662, "disposition": 22137, "freely": 10350, "##\u0965": 29881, "##chia": 20881, "specifications": 15480, "demanding": 9694, "outlaws": 23107, "cast": 3459, "elastic": 21274, "shipbuilding": 16802, "harmon": 25546, "alice": 5650, "schultz": 22378, "drafted": 7462, "lex": 17244, "utilities": 16548, "mature": 9677, "\u30c1": 1710, "sources": 4216, "##ina": 3981, "diplomats": 23473, "ferocious": 27863, "defeating": 6324, "vitro": 25714, "##eta": 12928, "thorns": 28408, "[unused369]": 374, "handles": 16024, "rhythmic": 14797, "fool": 7966, "worry": 4737, "review": 3319, "##group": 17058, "regulate": 15176, "software": 4007, "so": 2061, "receptions": 16466, "components": 6177, "southern": 2670, "\u8fb6": 1956, "rebranded": 18233, "ke": 17710, "##side": 7363, "plaza": 8232, "junk": 18015, "alfredo": 19423, "antrim": 24142, "madame": 10602, "general": 2236, "sims": 18135, "amid": 13463, "substitution": 20885, "newt": 25597, "prakash": 22233, "whitaker": 27049, "bucket": 13610, "marvin": 13748, "debra": 28762, "authentication": 27280, "fountains": 23497, "sultan": 7544, "substitute": 7681, "treasury": 9837, "conjecture": 22647, "flavor": 14894, "rabbit": 10442, "records": 2636, "cartel": 21680, "##orn": 9691, "\u304a": 1650, "insisting": 22604, "152": 15017, "urban": 3923, "publishers": 8544, "##ains": 28247, "##rwin": 27349, "def": 13366, "60": 3438, "associated": 3378, "skylar": 27970, "ritter": 23168, "intel": 13420, "fellows": 13572, "ic": 24582, "olympiad": 25225, "gaps": 16680, "organisms": 11767, "policemen": 19809, "\u3089": 1685, "##mento": 23065, "engulfed": 24692, "championed": 28683, "commonly": 4141, "triangles": 27189, "##\u207a": 12744, "22": 2570, "prompt": 25732, "820": 26667, "\u1019": 1437, "##elial": 24587, "runways": 24578, "inverness": 22937, "waiter": 15610, "peacock": 18931, "glider": 18788, "lazarus": 23623, "##puted": 29462, "##ard": 4232, "molecular": 8382, "brian": 4422, "##iling": 16281, "[unused218]": 223, "nonprofit": 14495, "##\u045a": 29763, "##tology": 23479, "smoking": 9422, "horsepower": 15149, "##pta": 22799, "[unused21]": 22, "##tea": 27058, "benfica": 26542, "irvine": 16272, "blaming": 24114, "characteristics": 6459, "liberia": 18039, "\u0564": 1222, "##zier": 21548, "##mill": 19912, "behave": 16582, "peak": 4672, "geological": 9843, "lacks": 14087, "rory": 14285, "sacrifices": 18502, "anymore": 4902, "millennia": 27620, "##ways": 14035, "##\u11ab": 30021, "lakshmi": 21352, "museums": 9941, "markets": 6089, "jazz": 4166, "\u1162": 1471, "gall": 26033, "conservation": 5680, "imports": 17589, "theo": 14833, "grotesque": 27707, "adjustment": 19037, "tho": 27793, "conveyed": 21527, "heroine": 18869, "ce": 8292, "##ir": 4313, "[unused596]": 601, "bandage": 24446, "sufficient": 7182, "##\u7592": 30439, "\u306c": 1669, "discourage": 28085, "##astic": 20875, "sudan": 10411, "broadway": 5934, "obstacle": 18355, "auditor": 20964, "vehicle": 4316, "toured": 7255, "attested": 18470, "pharaoh": 22089, "stephen": 4459, "[unused634]": 639, "sanctions": 17147, "reclamation": 27389, "specialists": 15744, "espana": 20678, "##boys": 24916, "##\u0e2d": 29957, "[unused481]": 486, "enthusiast": 29550, "deliveries": 23534, "ren": 14916, "truce": 18415, "yan": 13619, "[unused555]": 560, "sands": 13457, "closer": 3553, "mira": 18062, "meat": 6240, "\u110c": 1464, "##etano": 28752, "75": 4293, "hannah": 8410, "##\u661f": 30392, "##har": 8167, "tossed": 7463, "isaac": 7527, "enrico": 21982, "##zard": 26154, "dress": 4377, "knicks": 27817, "sociologist": 25106, "luz": 26214, "koch": 15259, "##gies": 17252, "fu": 11865, "eurovision": 12714, "revolving": 24135, "baked": 17776, "pursue": 7323, "males": 3767, "strewn": 25259, "brass": 8782, "[unused7]": 8, "origins": 7321, "1937": 4347, "loomed": 24358, "##bolt": 22803, "##kovich": 28195, "##ana": 5162, "##neo": 23585, "##sey": 7952, "##\u02b0": 29706, "tractor": 16358, "missing": 4394, "dioxide": 14384, "salim": 27490, "##gano": 29451, "xiii": 15031, "virtual": 7484, "edit": 10086, "##urrent": 29264, "connection": 4434, "french": 2413, "scott": 3660, "sympathy": 11883, "##bri": 23736, "bertram": 27515, "colt": 9110, "occasion": 6686, "##gat": 20697, "##eri": 11124, "##kam": 27052, "proponent": 22488, "assess": 14358, "believers": 20373, "##vation": 21596, "##chen": 8661, "sped": 16887, "granada": 16553, "\u00f7": 1099, "pots": 18911, "##3d": 29097, "breaststroke": 28164, "tristan": 9822, "wisconsin": 5273, "##nov": 16693, "attitude": 7729, "dana": 11271, "favour": 7927, "apply": 6611, "kingdoms": 12028, "ghz": 29066, "##i": 2072, "lovely": 8403, "##bet": 20915, "inauguration": 17331, "destinations": 14345, "##\u0639": 29830, "mccain": 19186, "fourteen": 7426, "priesthood": 17911, "ostensibly": 23734, "##ner": 3678, "glove": 15913, "amor": 16095, "##hunter": 25629, "[unused661]": 666, "##\uff5e": 30521, "doctrines": 23252, "cmll": 25395, "intro": 17174, "arterial": 25543, "##ske": 17140, "oath": 11292, "bsc": 23533, "blah": 27984, "razor": 15082, "monograph": 24039, "##shire": 7430, "determine": 5646, "bbc": 4035, "offensive": 5805, "local": 2334, "\u6c11": 1892, "intently": 16170, "extra": 4469, "\u8449": 1943, "annabelle": 24722, "daytime": 12217, "lam": 16983, "converge": 28314, "marche": 28791, "volkswagen": 18817, "inspire": 18708, "api": 17928, "dams": 17278, "prom": 20877, "##tal": 9080, "##some": 14045, "##ts": 3215, "examined": 8920, "broadly": 13644, "gaza": 14474, "liza": 20503, "authored": 8786, "authors": 6048, "trips": 9109, "##dling": 14423, "frontiers": 28750, "yoo": 26823, "hydrogen": 9732, "linking": 11383, "buick": 28865, "trends": 12878, "missed": 4771, "carpets": 27997, "demonic": 23170, "annually": 6604, "stuff": 4933, "futile": 24495, "gameplay": 11247, "[unused391]": 396, "ideal": 7812, "##rance": 21621, "brasil": 21133, "limo": 23338, "##rm": 10867, "duet": 11979, "sparkling": 16619, "demonstration": 10467, "choking": 18329, "styx": 21856, "pitched": 8219, "slovakia": 10991, "limbs": 10726, "unreleased": 13270, "rams": 13456, "266": 25162, "prompting": 15870, "dull": 10634, "[unused5]": 6, "##rlin": 19403, "medici": 22605, "wildly": 13544, "drum": 6943, "wound": 6357, "fl": 13109, "flourish": 24299, "##dle": 10362, "churches": 5231, "tug": 12888, "europa": 12124, "effect": 3466, "dunes": 17746, "##grating": 28183, "park": 2380, "northamptonshire": 21367, "paddington": 26318, "keyboardist": 20173, "##plify": 28250, "##ory": 10253, "judith": 12924, "crusade": 16282, "##sei": 20240, "ngc": 27645, "limousine": 28012, "##tore": 19277, "fashion": 4827, "annex": 17827, "hms": 7220, "coconut": 16027, "address": 4769, "forested": 15205, "ventured": 20510, "archival": 22796, "laguna": 18169, "\u094b": 1343, "save": 3828, "serra": 22737, "specials": 19247, "interrupt": 17938, "##typical": 27086, "universidad": 16501, "perhaps": 3383, "wealthiest": 27809, "##ve": 3726, "kwan": 27741, "rotated": 20931, "postwar": 20013, "##washed": 27283, "darkened": 13755, "##ena": 8189, "specifies": 27171, "sharpened": 26694, "permission": 6656, "ports": 8831, "shelby": 15294, "bombs": 9767, "hazard": 15559, "clover": 25133, "eliminating": 15349, "modeling": 11643, "responds": 16412, "deliberately": 9969, "bladed": 27402, "subconscious": 27952, "##ices": 23522, "periodically": 18043, "##\u2500": 30142, "darcy": 17685, "army": 2390, "dom": 14383, "##ook": 14659, "##ble": 3468, "##sden": 27903, "playfully": 22608, "psalms": 26130, "composers": 9929, "static": 10763, "##amp": 16613, "coroner": 22896, "bowie": 14598, "nikolay": 28494, "##isation": 6648, "##bush": 22427, "benin": 21164, "##ized": 3550, "bitterly": 19248, "\u0996": 1354, "sticks": 12668, "##ates": 8520, "##jhl": 29001, "martinez": 10337, "southward": 22161, "lesbian": 11690, "overnight": 11585, "##burgh": 15496, "smiley": 27420, "##fect": 25969, "drawing": 5059, "depended": 17292, "[unused268]": 273, "##hiti": 27798, "nepali": 23418, "blamed": 11248, "##est": 4355, "wingspan": 9635, "electoral": 6092, "country": 2406, "mauritius": 18004, "peck": 18082, "glendale": 27649, "barr": 19820, "cope": 11997, "mae": 11530, "knuckles": 13513, "##wer": 13777, "reliefs": 27670, "##\u694a": 30409, "48": 4466, "##\u06c1": 29845, "superficial": 23105, "[unused780]": 785, "completing": 7678, "##mann": 5804, "##cure": 23887, "\u3061": 1662, "clint": 16235, "\u30c4": 1712, "crucial": 10232, "jackson": 4027, "expands": 24545, "dot": 11089, "##yes": 23147, "addison": 18403, "\u00bd": 1092, "workers": 3667, "dea": 26709, "\u2282": 1610, "utilize": 16462, "deliberate": 15063, "rand": 14566, "[unused898]": 903, "administering": 28965, "\u0574": 1229, "[unused65]": 66, "1863": 6899, "constituents": 24355, "##bular": 28808, "\u06be": 1307, "##adan": 26335, "[unused70]": 71, "[unused621]": 626, "ancestry": 11377, "cote": 17155, "coordinate": 13530, "bellevue": 26756, "inuit": 25179, "sylvie": 26009, "assumptions": 17568, "1886": 6929, "questionable": 21068, "prussia": 10724, "[unused355]": 360, "box": 3482, "##ntly": 20630, "barrow": 15355, "trusting": 19836, "thrill": 16959, "##\u5e78": 30367, "advertising": 6475, "reilly": 13875, "skopje": 29255, "##gee": 18372, "western": 2530, "certificate": 8196, "neuroscience": 23700, "promotion": 4712, "ongoing": 7552, "phantom": 11588, "\u1100": 1455, "representing": 5052, "[unused590]": 595, "dizzy": 14849, "cid": 28744, "promo": 19430, "females": 3801, "[unused834]": 839, "[unused773]": 778, "icao": 18055, "videos": 6876, "favourites": 28271, "##duction": 16256, "ruling": 6996, "earth": 3011, "leto": 24543, "##kit": 23615, "unknown": 4242, "area": 2181, "##oche": 23555, "build": 3857, "[unused588]": 593, "deposed": 18298, "premium": 12882, "faux": 29276, "##\u09a3": 29897, "##rim": 20026, "##iculate": 24153, "\u0e17": 1412, "\u05da": 1251, "##yed": 20821, "auxiliary": 9830, "disciplinary": 17972, "quinlan": 28451, "\u0443": 1198, "##oot": 17206, "nitrate": 29607, "ellison": 21513, "leave": 2681, "undergraduate": 8324, "competed": 3879, "jammu": 21433, "kia": 27005, "[unused194]": 199, "publicity": 11845, "molina": 25601, "##tial": 20925, "multiplication": 24856, "pushes": 13956, "##vent": 15338, "mark": 2928, "melt": 14899, "algae": 18670, "##\u30ec": 30260, "chronic": 11888, "##hani": 23573, "somerville": 27209, "\u091c": 1319, "wwii": 25755, "reconnaissance": 8967, "[unused256]": 261, "suspect": 8343, "##yre": 16363, "incense": 28647, "1717": 27525, "factors": 5876, "##mania": 27010, "raphael": 12551, "failures": 15428, "\u09b6": 1374, "139": 16621, "ethics": 9615, "outreach": 15641, "built": 2328, "enclosure": 17539, "declines": 26451, "##omics": 25524, "props": 24387, "##ume": 17897, "##sten": 16173, "\u2113": 1577, "appointment": 6098, "##ysis": 20960, "star": 2732, "controller": 11486, "##dus": 17619, "successes": 14152, "blame": 7499, "both": 2119, "atoms": 13353, "nhs": 17237, "benign": 28378, "checkpoint": 26520, "corbin": 24003, "[unused751]": 756, "glided": 26936, "conor": 20545, "##sau": 23823, "##akes": 20060, "hicks": 17221, "diver": 17856, "hierarchical": 25835, "##\u094b": 29879, "permanently": 8642, "relic": 24933, "aquatics": 26649, "404": 24837, "pilasters": 26752, "[unused432]": 437, "struggling": 8084, "louvre": 25110, "##creen": 24410, "comprehension": 26683, "armagh": 24678, "athenian": 26956, "kathryn": 20484, "hymn": 14825, "maintaining": 8498, "##\u0438": 10325, "##var": 10755, "emotional": 6832, "[unused854]": 859, "ioc": 25941, "controlling": 9756, "##tani": 17681, "marvel": 8348, "unmarried": 17204, "\u963f": 1971, "mor": 22822, "carl": 5529, "eighty": 12021, "##ight": 18743, "jennifer": 7673, "bosnia": 9562, "inflammation": 21733, "cole": 5624, "\u1da0": 1512, "##\u00b3": 18107, "bayou": 24818, "patriots": 11579, "sweeney": 21178, "views": 5328, "consortium": 12360, "fantastic": 10392, "redhead": 26705, "contra": 24528, "eugen": 29273, "disgusting": 19424, "influence": 3747, "moshe": 27123, "un": 4895, "piloted": 27220, "ieee": 15368, "plantations": 14979, "##rit": 14778, "##venting": 26703, "##hic": 16066, "applicable": 12711, "##uka": 15750, "adverse": 15316, "##uttered": 23128, "\u116a": 1476, "##\u2261": 30134, "cowan": 25752, "chill": 10720, "samson": 18375, "external": 6327, "##nity": 22758, "bleak": 21657, "lacey": 16355, "eliot": 16292, "frigate": 15437, "reluctant": 11542, "mattress": 13342, "resolving": 29304, "802": 23908, "funeral": 6715, "##atic": 12070, "relevance": 21923, "necklace": 13016, "donate": 21357, "equal": 5020, "##uck": 12722, "regimes": 25228, "visually": 17453, "march": 2233, "user": 5310, "rogue": 12406, "uncles": 27328, "exhibited": 8176, "tor": 17153, "dun": 24654, "##ulated": 8898, "titanic": 20753, "explosives": 14792, "uv": 23068, "hoisted": 27269, "ck": 23616, "##\u0f42": 29962, "##inates": 28184, "lila": 19286, "veracruz": 23741, "rise": 4125, "590": 25186, "##nst": 23808, "##\u529b": 30304, "##ern": 11795, "\u0bb2": 1392, "##shed": 14740, "researching": 20059, "##uram": 27618, "[unused363]": 368, "preliminary": 8824, "tandem": 18231, "supply": 4425, "kevin": 4901, "##\u03c5": 29735, "##band": 12733, "darius": 14861, "##zia": 12871, "appears": 3544, "##fighting": 22158, "[unused17]": 18, "utah": 6646, "focus": 3579, "vault": 11632, "rt": 19387, "taped": 19374, "##zcz": 29419, "cal": 10250, "strikeouts": 20813, "mit": 10210, "naomi": 12806, "slovenian": 16583, "will": 2097, "##\u0ba9": 29923, "##ider": 18688, "builds": 16473, "##amen": 27245, "erica": 19295, "##table": 10880, "vibrated": 27801, "rocking": 14934, "book": 2338, "dipping": 23427, "indexed": 25331, "correspond": 17254, "\u21c4": 1589, "boss": 5795, "super": 3565, "##mons": 16563, "defects": 18419, "growing": 3652, "our": 2256, "193": 19984, "jozef": 23258, "##flight": 28968, "##verse": 16070, "\u2193": 1586, "##oi": 10448, "##phones": 19093, "cade": 18615, "princes": 12000, "conflict": 4736, "shot": 2915, "marine": 3884, "mine": 3067, "mounds": 19503, "##nium": 14907, "pork": 15960, "##unda": 18426, "rig": 19838, "outbreak": 8293, "subset": 16745, "connie": 16560, "dies": 8289, "canals": 17263, "##bn": 24700, "1983": 3172, "raped": 15504, "##gs": 5620, "cello": 10145, "[unused165]": 170, "indonesian": 9003, "\uff1f": 1994, "instrumentalist": 29253, "forearms": 27323, "restriction": 16840, "##ooped": 20671, "[unused759]": 764, "##lam": 10278, "cb": 17324, "addition": 2804, "\u2ea9": 1632, "\u20a9": 1573, "##\u5b97": 30347, "genesis": 11046, "speeding": 21485, "##usia": 24118, "ash": 6683, "feature": 3444, "##aling": 21682, "leaving": 2975, "reluctance": 21662, "wang": 7418, "vincenzo": 24712, "meng": 27955, "labrador": 18604, "which": 2029, "waldo": 28806, "wong": 11789, "slapped": 11159, "\u2227": 1602, "diagnosed": 11441, "concord": 16557, "pedestrian": 14662, "rotor": 18929, "##zine": 21254, "precisely": 10785, "\u0916": 1316, "archer": 11024, "[unused364]": 369, "richard": 2957, "alive": 4142, "##\u0905": 29847, "poisoned": 17672, "kuwait": 13085, "fleming": 13779, "expressed": 5228, "malaya": 19979, "sacred": 6730, "uniting": 26112, "proton": 20843, "persona": 16115, "[unused715]": 720, "filmed": 6361, "drug": 4319, "network": 2897, "accredited": 11459, "headache": 14978, "bait": 17395, "ratings": 8599, "embroidery": 29507, "abstraction": 24504, "cu": 12731, "esq": 25325, "[unused2]": 3, "curling": 11599, "##cake": 17955, "unsure": 12422, "##rmi": 28550, "suppress": 16081, "terri": 26568, "missions": 6416, "hands": 2398, "##vere": 28943, "attaining": 26615, "stanis\u0142aw": 26133, "suffer": 9015, "involving": 5994, "lehigh": 23241, "##usly": 27191, "facing": 5307, "##lem": 16930, "##\u301c": 30171, "moonlight": 11986, "remodeled": 27170, "\u00b9": 1088, "suddenly": 3402, "controversial": 6801, "##scia": 27210, "indicted": 21801, "sleeps": 25126, "##eia": 27958, "regulators": 25644, "marches": 20691, "##ids": 9821, "spite": 8741, "##\u10dc": 29985, "stallion": 19122, "dmitri": 28316, "favored": 12287, "frustration": 9135, "virginia": 3448, "##usions": 22016, "relations": 4262, "totaling": 21798, "questions": 3980, "780": 28601, "balkans": 19733, "manipulation": 16924, "enjoyable": 22249, "grossing": 18244, "beth": 7014, "especially": 2926, "musik": 28076, "posthumously": 12770, "archery": 21383, "penguins": 18134, "[unused323]": 328, "vamp": 20279, "##khar": 22510, "servant": 7947, "coal": 5317, "varying": 9671, "##aldo": 27318, "steven": 7112, "handling": 8304, "##icon": 28524, "lay": 3913, "229": 22777, "##eck": 11012, "bags": 8641, "variants": 10176, "commerce": 6236, "my": 2026, "yamaha": 24031, "aircraft": 2948, "chassis": 11832, "production": 2537, "gibraltar": 12272, "##rcus": 29006, "brick": 5318, "emergencies": 26360, "ecosystems": 20440, "greatly": 6551, "carrier": 6839, "montrose": 24990, "flickering": 20046, "\u898b": 1948, "[unused303]": 308, "[unused311]": 316, "[unused470]": 475, "tenth": 7891, "baroque": 10456, "1784": 16496, "elsie": 24603, "validation": 27354, "##oes": 22504, "doing": 2725, "exact": 6635, "poster": 13082, "designers": 11216, "recognized": 3858, "##itt": 12474, "arresting": 28427, "ned": 12311, "hunched": 20498, "##nor": 12131, "moans": 24675, "##ammed": 27479, "\u0bb5": 1394, "giuseppe": 12574, "grin": 5861, "##\u05e6": 29809, "##\u4f50": 30290, "zero": 5717, "##s\u0142aw": 23305, "businesses": 5661, "kentucky": 5612, "export": 9167, "wrists": 12150, "daggers": 24210, "ks": 29535, "##personal": 28823, "monkey": 10608, "transforming": 17903, "amassed": 22151, "nuremberg": 19346, "junctions": 27169, "[unused329]": 334, "##race": 22903, "##runner": 23195, "rpm": 11575, "tradition": 4535, "grove": 7676, "##cture": 14890, "##reate": 29313, "butler": 7055, "##bre": 13578, "spit": 13183, "##worth": 5172, "simone": 14072, "##\u96c4": 30500, "breeders": 20823, "tuscany": 23322, "berber": 27514, "whatsoever": 18971, "##\uff09": 30514, "madam": 21658, "amendments": 16051, "specialty": 12233, "guerrero": 16938, "dobson": 27679, "detector": 19034, "seville": 18983, "##dget": 24291, "sq": 5490, "liquidation": 28763, "mingled": 25959, "imagination": 9647, "poke": 26202, "##com": 9006, "identities": 15702, "brandenburg": 16426, "kendall": 14509, "sh": 14021, "\u52a0": 1779, "compressed": 16620, "displaced": 12936, "##\u4e3b": 30273, "bam": 25307, "hates": 16424, "small": 2235, "pueblo": 18273, "stacks": 20829, "re": 2128, "##ado": 9365, "successively": 24288, "rock": 2600, "\u677e": 1880, "mistakenly": 20706, "documented": 8832, "##dict": 29201, "harmed": 25596, "sensor": 13617, "wizard": 10276, "heavyweight": 8366, "warwick": 13283, "orion": 18747, "derives": 12153, "orthogonal": 28721, "fabrication": 25884, "##\u1111": 30004, "cumbria": 25559, "##rius": 13245, "beige": 28799, "superliga": 25922, "given": 2445, "1860s": 15914, "meade": 26501, "trustee": 13209, "##kota": 27380, "pending": 14223, "newfound": 27608, "faulkner": 25109, "[unused195]": 200, "graduates": 10845, "dated": 6052, "thomas": 2726, "1726": 28342, "family": 2155, "aw": 22091, "\u0982": 1346, "walked": 2939, "[unused516]": 521, "[unused525]": 530, "considerable": 6196, "transplant": 22291, "hang": 6865, "1751": 24440, "[unused33]": 34, "barlow": 17803, "protege": 28567, "##?": 29632, "rodney": 13898, "vertex": 19449, "focused": 4208, "juliet": 13707, "##{": 29640, "implementation": 7375, "hoover": 17443, "##iff": 13355, "regaining": 28657, "##hos": 15006, "\u624c": 1859, "molded": 27992, "##zic": 27586, "##amy": 24079, "enfield": 25821, "castle": 3317, "muffled": 15783, "cyber": 16941, "started": 2318, "priest": 5011, "stephanie": 11496, "routledge": 21180, "##mation": 28649, "summit": 6465, "inlet": 15824, "##\u00ae": 29656, "federico": 20493, "wo": 24185, "francaise": 18427, "with": 2007, "feeding": 8521, "physical": 3558, "dark": 2601, "emphasis": 7902, "##nco": 15305, "[unused987]": 992, "diffuse": 28105, "chuck": 8057, "eliminate": 11027, "scoring": 4577, "bullshit": 14636, "##aton": 22436, "lads": 29126, "##gned": 19225, "##uss": 17854, "##icz": 18682, "faculties": 18658, "##36": 21619, "hopper": 20517, "affairs": 3821, "brilliance": 28850, "https": 16770, "isle": 8842, "although": 2348, "##gas": 12617, "##islav": 19834, "encounter": 8087, "separate": 3584, "densely": 19441, "notion": 9366, "930": 29359, "relationships": 6550, "m": 1049, "integral": 9897, "[unused213]": 218, "[unused113]": 118, "##writing": 18560, "vaults": 28658, "embarrassed": 10339, "yugoslavia": 8936, "tolerate": 19242, "plymouth": 10221, "##uc": 14194, "##dhar": 25632, "terrestrial": 12350, "[unused553]": 558, "##nds": 18376, "treats": 18452, "angelina": 23847, "##ip": 11514, "1787": 16057, "stares": 14020, "ambition": 16290, "grown": 4961, "cn": 27166, "##\u1d58": 30042, "techno": 21416, "yue": 27163, "##od": 7716, "\u00a6": 1072, "inherent": 16112, "furlongs": 26602, "clearance": 14860, "erskine": 27139, "##ores": 16610, "stadiums": 28244, "strapped": 18019, "association": 2523, "\u1102": 1456, "##scent": 27654, "catherine": 6615, "warden": 13745, "##eda": 11960, "##iza": 21335, "tries": 5363, "swapped": 29176, "speculated": 15520, "murderous": 25303, "reduction": 7312, "beautiful": 3376, "piled": 17835, "##eran": 23169, "terry": 6609, "##ogen": 23924, "athens": 7571, "rouen": 27030, "endangered": 10193, "##bala": 25060, "rankin": 25772, "abd": 19935, "linden": 22066, "odisha": 21874, "##ps": 4523, "avalon": 18973, "shifter": 18189, "\u2079": 1543, "forest": 3224, "snaps": 20057, "131": 14677, "lively": 17133, "occurrence": 14404, "[unused95]": 96, "polk": 20819, "afghanistan": 7041, "##\u05e9": 29812, "timber": 7227, "nudged": 18666, "bismarck": 22029, "astoria": 29285, "km\u00b2": 3186, "inherently": 26096, "prima": 21111, "lyricist": 19489, "kawasaki": 27324, "##hosis": 25229, "campuses": 13696, "bin": 8026, "elijah": 14063, "sudanese": 25603, "audio": 5746, "##\u02e3": 29718, "fact": 2755, "\u5c1a": 1830, "wraps": 19735, "commercially": 11088, "terror": 7404, "lal": 21348, "consultants": 22283, "greece": 5483, "flex": 23951, "172": 18253, "enactment": 26465, "susan": 6294, "dragon": 5202, "maxwell": 10691, "\u0580": 1237, "protective": 9474, "##gong": 17036, "shutting": 17521, "##&": 29617, "pills": 15345, "subscribers": 17073, "edited": 5493, "abbreviated": 12066, "invincible": 25018, "resources": 4219, "##\u0575": 29777, "speechless": 25146, "possess": 10295, "outward": 15436, "deposited": 14140, "explorer": 10566, "madeira": 27309, "volcanoes": 23694, "rat": 9350, "secured": 7119, "johnstone": 24160, "emotions": 6699, "smith": 3044, "management": 2968, "##lio": 12798, "mendez": 28950, "dammit": 20878, "consumed": 10202, "hottest": 20930, "rubbish": 29132, "650": 13757, "##\u4e94": 30279, "donovan": 12729, "1763": 18432, "elephant": 10777, "dissatisfaction": 28237, "copied": 15826, "convenience": 15106, "jointly": 10776, "influences": 8092, "[unused400]": 405, "systems": 3001, "problems": 3471, "swept": 7260, "##\u99ac": 30506, "##\u10d8": 29981, "sous": 27411, "reigned": 21236, "promoting": 7694, "[unused849]": 854, "elevation": 6678, "zambia": 15633, "literary": 4706, "##nte": 10111, "nightstand": 23135, "alike": 11455, "##andra": 29159, "1890": 6193, "mayoral": 23578, "##hya": 17915, "kildare": 24275, "burying": 20491, "commercials": 12698, "\u0f51": 1428, "##\u0e17": 29948, "legally": 10142, "subgroup": 20576, "second": 2117, "##\u1100": 29991, "##phine": 20738, "edo": 18314, "##25": 17788, "gnu": 27004, "soared": 29127, "##zione": 20574, "##\u201d": 30059, "closely": 4876, "##ffled": 28579, "abe": 14863, "threatens": 17016, "want": 2215, "wrongly": 29116, "wheelchair": 13204, "in": 1999, "pierce": 9267, "tile": 14090, "tone": 4309, "qing": 13282, "elf": 17163, "bail": 15358, "slovene": 18326, "hint": 9374, "contributed": 5201, "restless": 15035, "codes": 9537, "##graphy": 12565, "\u3081": 1680, "ox": 23060, "probation": 19703, "gears": 19456, "taxes": 7773, "broadcaster": 11995, "owls": 22388, "1748": 24445, "##azi": 16103, "##lad": 27266, "grass": 5568, "##sts": 12837, "cans": 18484, "third": 2353, "##ents": 11187, "##dman": 21804, "sufi": 21845, "administered": 8564, "##zziness": 29212, "335": 24426, "##\u03c2": 19579, "drugged": 25483, "much": 2172, "##ghi": 28891, "##abad": 10542, "combinations": 14930, "ref": 25416, "##\u592a": 30338, "scooped": 20804, "\u306e": 1671, "protestants": 19592, "camped": 27077, "absorbed": 9063, "members": 2372, "risk": 3891, "broom": 23528, "classified": 6219, "hello": 7592, "\u00a32": 21853, "##nical": 20913, "erika": 24900, "\u0679": 1301, "shapiro": 24630, "##ega": 29107, "rower": 21984, "##sam": 21559, "watson": 7908, "##sonic": 18585, "clicked": 13886, "##rdy": 17460, "terence": 22677, "##factory": 21450, "##chel": 15721, "jailed": 21278, "##ify": 8757, "cautiously": 15151, "##type": 13874, "##des": 6155, "sarcastic": 22473, "native": 3128, "fumble": 19576, "ritchie": 20404, "harlow": 22545, "##\u221a": 30127, "lurched": 21977, "better": 2488, "rwanda": 17591, "delays": 14350, "akbar": 20730, "##hedron": 26440, "diary": 9708, "mendoza": 18021, "##ayan": 25868, "canary": 17154, "merged": 5314, "lyrical": 16376, "technological": 10660, "##minate": 19269, "perpetual": 18870, "##it": 4183, "blacks": 10823, "siding": 17326, "taxpayer": 26980, "##rs": 2869, "[unused548]": 553, "##ylus": 18871, "\u03c5": 1175, "vogue": 17734, "\u05d5": 1246, "greyish": 26916, "##\u05e4": 29807, "wrestlemania": 28063, "brows": 11347, "##mora": 22122, "nelson": 5912, "##ison": 10929, "dip": 16510, "buckingham": 17836, "mantra": 25951, "elephants": 16825, "vessels": 6470, "slovenia": 10307, "swell": 18370, "##iko": 12676, "\u30d2": 1719, "stormed": 16201, "transported": 9687, "braced": 15515, "decrees": 28966, "homeland": 10759, "height": 4578, "stall": 13498, "20s": 27074, "\u0561": 1219, "occurring": 10066, "belarus": 12545, "yemen": 13968, "[unused339]": 344, "##cera": 19357, "owner": 3954, "mama": 9588, "genetics": 14471, "##\u79cb": 30455, "hazy": 26710, "austen": 24177, "narrows": 25142, "archibald": 15917, "##skie": 23955, "##t": 2102, "##gging": 12588, "amazon": 9733, "stryker": 25429, "##gens": 21230, "regency": 15647, "##lass": 27102, "liquor": 13207, "exploitation": 14427, "crept": 13147, "##ek": 5937, "##\u05dc": 29799, "madhya": 20841, "kidnapping": 15071, "cantata": 23629, "##\u2264": 30135, "settlements": 7617, "viper": 17947, "[unused650]": 655, "##vyn": 23487, "geologic": 22125, "##yi": 10139, "exited": 15284, "shuttle": 10382, "socialists": 21633, "boyle": 16694, "emory": 25853, "saved": 5552, "##mel": 10199, "stalker": 23883, "##berger": 14859, "[unused137]": 142, "schleswig": 21173, "olga": 15585, "thumbs": 16784, "##nidae": 29135, "peerage": 18760, "caledonian": 27449, "kindly": 19045, "concentrate": 10152, "pre": 3653, "armies": 8749, "insight": 12369, "contemporaries": 16682, "discouraged": 22585, "hindwings": 15998, "demonstrates": 16691, "##\u2208": 30124, "methyl": 25003, "mmm": 25391, "cyclists": 21912, "##jong": 21958, "checking": 9361, "awards": 2982, "bonnie": 12220, "\u10d8": 1445, "students": 2493, "excel": 24970, "requesting": 17942, "\u5206": 1775, "playwright": 11170, "##illa": 9386, "##itude": 18679, "jain": 17136, "lays": 19764, "comeback": 12845, "cinema": 5988, "interfere": 15115, "defining": 12854, "##\u03c0": 29731, "burn": 6402, "sargent": 27599, "##cc": 9468, "hailed": 16586, "duo": 6829, "accelerate": 23306, "[unused314]": 319, "russo": 17023, "involvement": 6624, "##\u0e19": 29949, "spending": 5938, "transmitting": 23820, "cricketer": 9490, "labelled": 18251, "administrator": 8911, "palestinian": 9302, "\u0e2a": 1420, "enemy": 4099, "invited": 4778, "advanced": 3935, "chamberlain": 13904, "creole": 21414, "ponds": 16879, "coaching": 7748, "##lynn": 27610, "arranging": 19018, "rca": 12639, "cemetery": 4528, "parameter": 16381, "##farlane": 23511, "slice": 14704, "##\u0443": 29748, "junta": 22450, "newtown": 26382, "fantasies": 21233, "\u7687": 1917, "strictly": 9975, "adjacent": 5516, "fingered": 28842, "##puri": 24661, "neoclassical": 22657, "gasp": 12008, "serie": 8668, "##cier": 19562, "heaving": 23907, "marital": 23143, "artworks": 22000, "legacy": 8027, "fascism": 23779, "cupboard": 25337, "granny": 19794, "##erina": 26052, "ted": 6945, "kendra": 13812, "eugene": 8207, "engined": 21235, "##\u2076": 30075, "basel": 14040, "emirates": 14041, "mallory": 20468, "pasta": 24857, "sector": 4753, "heirs": 15891, "houghton": 21234, "subgenus": 25356, "dev": 16475, "##15": 16068, "##grant": 18980, "intersections": 26540, "developer": 9722, "striker": 11854, "\u00b0f": 8157, "[unused749]": 754, "##zaki": 18637, "navigator": 20532, "##udy": 20217, "aquino": 24183, "inactive": 16389, "##ear": 14644, "##ials": 26340, "hearts": 8072, "boone": 15033, "##laus": 28128, "bloomington": 26372, "picked": 3856, "tornado": 11352, "ships": 3719, "respectively": 4414, "excluding": 13343, "hiring": 14763, "gorman": 25693, "mrna": 28848, "para": 11498, "lock": 5843, "##urse": 28393, "concerning": 7175, "needy": 23927, "nepal": 8222, "knocks": 21145, "armor": 8177, "alongside": 4077, "##chus": 16194, "antibiotics": 24479, "aaron": 7158, "##hei": 26036, "##!": 29612, "##hae": 25293, "daughter": 2684, "personality": 6180, "sulfate": 26754, "talking": 3331, "relaxed": 8363, "nape": 23634, "pu": 16405, "##urable": 23086, "affordable": 15184, "##tya": 21426, "##arian": 12199, "abstracts": 29474, "##bers": 17198, "formerly": 3839, "crew": 3626, "halls": 9873, "translate": 17637, "penned": 17430, "factories": 11123, "[unused859]": 864, "##26": 23833, "##thy": 16921, "por": 18499, "[unused96]": 97, "##lessness": 24913, "94": 6365, "noir": 15587, "housemates": 28152, "regents": 22832, "interest": 3037, "sensitivity": 14639, "##iger": 17071, "##ug": 15916, "hurley": 25124, "steaming": 19986, "edge": 3341, "fiona": 13073, "287": 23090, "##very": 27900, "harcourt": 22714, "busch": 15840, "microsoft": 7513, "possessing": 18840, "##ies": 3111, "emmy": 10096, "futures": 17795, "disbelief": 12537, "handful": 9210, "thick": 4317, "fit": 4906, "\u056f": 1227, "synchronized": 25549, "corinne": 26879, "##sphere": 23874, "##bill": 24457, "##ense": 16700, "nikolai": 13870, "alcohol": 6544, "roaming": 24430, "gunn": 22079, "1200": 14840, "veterans": 8244, "overcoming": 27363, "[unused786]": 791, "##acing": 26217, "[unused911]": 916, "basically": 10468, "stephens": 15037, "[unused770]": 775, "##alle": 24164, "##ional": 19301, "stephenson": 19789, "##\u10e2": 29989, "##tten": 25970, "informed": 6727, "reaches": 6561, "theatres": 13166, "tidy": 29369, "1830": 9500, "*": 1008, "rutland": 27780, "oclc": 12258, "hey": 4931, "##pment": 24073, "##llation": 20382, "##f": 2546, "fists": 10006, "hawthorne": 23440, "sanctuary": 8493, "swan": 10677, "henson": 27227, "prevent": 4652, "distract": 15886, "[unused251]": 256, "randy": 9744, "icc": 16461, "[unused490]": 495, "##\u3084": 30208, "grover": 25242, "deformation": 29130, "palatinate": 18990, "superiority": 19113, "resource": 7692, "neighbourhoods": 27535, "##sner": 20479, "noticing": 15103, "verandah": 26153, "middle": 2690, "electric": 3751, "foothills": 18455, "##storm": 19718, "approve": 14300, "harpsichord": 26504, "croatia": 8097, "eager": 9461, "##\u3059": 30184, "match": 2674, "charcoal": 18872, "bachelor": 5065, "tv": 2694, "exclusion": 15945, "constrained": 27570, "feasible": 22945, "[unused212]": 217, "temperature": 4860, "jet": 6892, "exit": 6164, "vegetarian": 23566, "351": 28474, "##virus": 23350, "[unused984]": 989, "penetrated": 21653, "fertile": 14946, "legendary": 8987, "mcintyre": 24564, "architectural": 6549, "mouse": 8000, "fields": 4249, "orbits": 20347, "[unused298]": 303, "souls": 9293, "spence": 22186, "gently": 5251, "adequately": 23613, "##dial": 27184, "##lay": 8485, "##phy": 21281, "ashamed": 14984, "##shima": 24772, "miracle": 9727, "diane": 12082, "bt": 18411, "carved": 7844, "##estra": 26199, "duck": 9457, "weapons": 4255, "fixing": 15887, "##tem": 18532, "nausea": 19029, "##10": 10790, "pendant": 23152, "teaming": 27025, "steamship": 23869, "##iques": 19516, "\u5bfa": 1827, "demands": 7670, "marriage": 3510, "fiancee": 19455, "forward": 2830, "##fra": 27843, "gaping": 21226, "turnover": 20991, "across": 2408, "weeds": 20777, "##tooth": 19392, "generating": 11717, "230": 11816, "constraint": 27142, "screams": 11652, "mayer": 14687, "guiding": 14669, "renegade": 28463, "175": 12862, "intensive": 11806, "sg": 22214, "bharatiya": 24243, "##ience": 13684, "racetrack": 28435, "men": 2273, "cupping": 25076, "jerusalem": 6744, "mph": 5601, "takahashi": 25585, "##logist": 10727, "incomplete": 12958, "fortunate": 19590, "bree": 21986, "##pres": 28994, "seasonal": 12348, "204": 19627, "paint": 6773, "twisted": 6389, "tracking": 9651, "ten": 2702, "miniature": 12973, "certainty": 15855, "\u2265": 1609, "governmental": 10605, "divers": 18612, "biographies": 22056, "mohawk": 22338, "vitamin": 17663, "port": 3417, "easter": 10957, "adventist": 25696, "participates": 17257, "as": 2004, "huang": 15469, "[unused853]": 858, "candles": 14006, "blinds": 28279, "##culture": 14561, "sorbonne": 28452, "##gn": 16206, "attorneys": 16214, "bastion": 26829, "spectacle": 21177, "##gf": 25708, "dissipated": 22572, "disturbed": 12491, "sl": 22889, "##bby": 14075, "incorporate": 13265, "passionate": 13459, "clit": 17962, "[unused231]": 236, "drummer": 7101, "hourly": 21462, "monday": 6928, "drake": 7867, "casualties": 8664, "##sov": 23230, "universities": 5534, "1786": 17436, "##aw": 10376, "##nine": 19105, "weaken": 23021, "direction": 3257, "\u0921": 1321, "##\u03b2": 29720, "[unused483]": 488, "muller": 12304, "##nies": 15580, "lin": 11409, "blanket": 8768, "mt": 11047, "##[": 29634, "sleep": 3637, "statewide": 13486, "beats": 10299, "clip": 12528, "mc": 11338, "objections": 17304, "ia": 24264, "##\u1d3a": 30030, "##hurst": 10510, "reversed": 11674, "guillaume": 20061, "##sto": 16033, "campaigning": 18524, "##eman": 16704, "grenada": 29153, "sumner": 23922, "programme": 4746, "13th": 6122, "stylized": 19551, "romeo": 12390, "##tique": 28437, "reaper": 19559, "trapping": 22977, "giggling": 21783, "##wan": 7447, "scorpion": 22015, "sneaking": 20727, "thoroughly": 12246, "movies": 5691, "offended": 15807, "coding": 16861, "##rily": 11272, "dimensional": 8789, "managers": 10489, "manufactures": 22027, "vacation": 10885, "[unused744]": 749, "##\u0648": 29836, "entered": 3133, "##ibar": 26656, "embryo": 28086, "democracy": 7072, "##kr": 21638, "mackenzie": 11407, "circumstance": 25652, "##itia": 29050, "\u83ef": 1942, "legislature": 6372, "##helm": 24546, "thrust": 7400, "##ssa": 11488, "##ees": 10285, "acknowledge": 13399, "ogden": 23203, "\u0449": 1204, "grenade": 17038, "indigenous": 6284, "folks": 12455, "frenzy": 21517, "overhead": 8964, "kuala": 15490, "##tman": 22942, "##mei": 26432, "complement": 13711, "author": 3166, "marty": 12578, "##vat": 22879, "patricia": 10717, "colored": 6910, "[unused126]": 131, "##\u091c": 29855, "hacker": 23307, "fiber": 11917, "\u05e1": 1258, "sharma": 14654, "[unused614]": 619, "##rion": 14772, "[unused368]": 373, "pants": 6471, "bays": 13933, "latvian": 14698, "\u6238": 1857, "hungarian": 5588, "bump": 16906, "[unused36]": 37, "splendid": 21459, "mutations": 14494, "##entes": 26933, "invitations": 29492, "##\u85e4": 30470, "holmes": 9106, "##unds": 26698, "telangana": 23764, "##ster": 6238, "231": 20304, "##nin": 11483, "transylvania": 20816, "filled": 3561, "invaded": 10836, "##rf": 12881, "\u529b": 1778, "marius": 20032, "ursula": 20449, "milling": 22491, "##hide": 26100, "cumulative": 23260, "wires": 14666, "[unused0]": 1, "pop": 3769, "witness": 7409, "216": 20294, "pear": 28253, "cadet": 12738, "harrisburg": 24569, "gains": 12154, "interned": 26345, "ward": 4829, "hasty": 27151, "##dine": 10672, "tennis": 5093, "2003": 2494, "notwithstanding": 26206, "heats": 18559, "##grove": 21525, "adjustments": 24081, "faber": 21720, "##ii": 6137, "[unused681]": 686, "\u0570": 1228, "length": 3091, "##\u03b8": 29725, "baths": 19692, "aiden": 15086, "chick": 14556, "ion": 10163, "legitimacy": 22568, "\u4f8d": 1765, "wolverine": 22162, "\u1d3a": 1494, "qur": 23183, "missy": 25019, "wc": 15868, "cites": 17248, "fearless": 22518, "wei": 11417, "evergreen": 16899, "spores": 23763, "sporadic": 24590, "[unused171]": 176, "relentless": 21660, "measurements": 11702, "##als": 9777, "enjoyment": 20195, "[unused335]": 340, "powell": 8997, "position": 2597, "cache": 17053, "favors": 21191, "idea": 2801, "jingle": 29262, "buds": 26734, "slim": 11754, "fire": 2543, "hospital": 2902, "financing": 12135, "jens": 25093, "miners": 11257, "##80": 17914, "decks": 19963, "lukas": 23739, "upstairs": 8721, "##tino": 25690, "##koff": 26126, "davidson": 12017, "addicted": 23042, "larger": 3469, "\u3086": 1683, "delay": 8536, "stored": 8250, "strategy": 5656, "publisher": 6674, "haitian": 21404, "adhere": 25276, "godfather": 23834, "commuted": 26704, "boroughs": 21413, "constituent": 13794, "sanctioned": 14755, "323": 25392, "##ance": 6651, "jr": 3781, "##\u9762": 30502, "gaulle": 28724, "jock": 23407, "##ora": 6525, "##iae": 19001, "bony": 22678, "sniff": 27907, "invention": 11028, "##rating": 15172, "strap": 16195, "acre": 7456, "##\u4e2d": 30272, "aren": 4995, "gerry": 14926, "##abas": 27537, "kathmandu": 28045, "lydia": 14076, "pained": 22295, "psycho": 18224, "icons": 18407, "intercourse": 23198, "attendees": 19973, "koln": 28306, "realising": 27504, "luce": 19913, "ripple": 24644, "thesis": 9459, "1910s": 28088, "thousands": 5190, "hoop": 27669, "evenly": 18030, "curls": 14484, "##chfield": 22693, "[unused202]": 207, "##vic": 7903, "rpg": 22531, "##\u300e": 30169, "fencing": 15962, "ottomans": 17774, "spur": 12996, "terrace": 11134, "##\u3009": 30164, "lenny": 19065, "usher": 20774, "characterization": 23191, "[unused392]": 397, "iihf": 26904, "##boards": 15271, "wynn": 25328, "moore": 5405, "padua": 24941, "nbc": 6788, "qatar": 12577, "rumors": 11256, "##reen": 28029, "component": 6922, "peer": 8152, "eldest": 7310, "wight": 20945, "squadron": 3704, "cowboy": 11762, "radical": 7490, "ithaca": 27939, "explores": 15102, "bowen": 16208, "montana": 8124, "##lary": 28221, "\u062c": 1275, "repeats": 17993, "\u76f8": 1919, "karen": 8129, "framing": 20241, "graduation": 7665, "freud": 19338, "[unused719]": 724, "kurdistan": 23627, "##oni": 10698, "1986": 3069, "\u09b0": 1372, "chilly": 24222, "stockton": 19161, "laos": 15786, "solving": 13729, "humanitarian": 11470, "##kawa": 13069, "##nsen": 29428, "##litz": 24725, "preface": 18443, "overgrown": 26433, "raoul": 22063, "plea": 14865, "buffer": 17698, "indoors": 24274, "awful": 9643, "compassionate": 29353, "classroom": 9823, "trip": 4440, "##rama": 14672, "sick": 5305, "eucalyptus": 27111, "insufficient": 13990, "resolve": 10663, "dracula": 18500, "heavy": 3082, "restrict": 21573, "shame": 9467, "dissatisfied": 25956, "mojo": 28017, "impetus": 27961, "undertaker": 27568, "editing": 9260, "##ated": 4383, "food": 2833, "horrified": 14603, "bending": 14457, "mcintosh": 29052, "legislative": 4884, "##oof": 21511, "blackout": 26717, "##\u06d2": 29846, "talon": 19048, "fredrik": 25454, "\u4f50": 1764, "##aga": 16098, "##xt": 18413, "plug": 13354, "##\u2190": 30111, "##ini": 5498, "briefcase": 21793, "pursuits": 23719, "subcontinent": 26125, "##wick": 7184, "dread": 14436, "reverted": 16407, "[unused556]": 561, "ymca": 26866, "##holder": 14528, "availability": 11343, "hooker": 17074, "207": 19843, "determined": 4340, "forget": 5293, "rolls": 9372, "brewing": 16005, "##play": 13068, "inclusion": 10502, "##tao": 28555, "##ishing": 21837, "terrain": 9291, "millennium": 10144, "victor": 5125, "pomeranian": 17717, "kidnapped": 11364, "obtain": 6855, "nationalism": 14594, "millimetres": 13388, "analyzing": 20253, "1690": 24765, "hodge": 23148, "lemon": 14380, "lantern": 12856, "trump": 8398, "satirical": 17251, "eh": 15501, "furniture": 7390, "##ncy": 9407, "##\u5b87": 30345, "##imo": 16339, "summer": 2621, "courage": 8424, "conspicuous": 19194, "communion": 15661, "stockholm": 8947, "flinders": 29120, "stimulation": 20858, "206": 18744, "chronicles": 11906, "170": 10894, "##bra": 10024, "##\u4ecb": 30285, "presidents": 11274, "trick": 7577, "move": 2693, "1996": 2727, "selective": 13228, "certification": 10618, "1775": 14276, "appearance": 3311, "stafford": 15064, "barron": 23594, "immortality": 20107, "teen": 9458, "only": 2069, "bat": 7151, "sunlight": 9325, "munster": 11348, "washed": 8871, "cops": 10558, "1730": 23272, "reflective": 21346, "lviv": 23814, "pause": 8724, "personally": 7714, "arbor": 19679, "slip": 7540, "khmer": 19472, "sheng": 25981, "fast": 3435, "ruthless": 18101, "culinary": 20560, "gamble": 18503, "chip": 9090, "[unused76]": 77, "ngo": 17895, "bombardier": 29143, "covent": 29456, "upset": 6314, "[unused635]": 640, "turrets": 21088, "casually": 13217, "##rani": 21578, "crimes": 6997, "##ht": 11039, "##ei": 7416, "scanned": 11728, "implant": 27159, "becca": 22140, "##liner": 20660, "nectar": 24816, "24th": 13386, "shortage": 15843, "pulls": 8005, "chargers": 18649, "suggested": 4081, "##mour": 20360, "##person": 27576, "dramas": 16547, "1746": 24507, "\u201a": 1522, "vein": 12818, "titus": 18828, "##cao": 20808, "spherical": 18970, "vascular": 21449, "archduke": 27463, "cambridge": 4729, "hans": 7003, "harshly": 21052, "quivering": 26012, "treatise": 15326, "##ks": 5705, "suburb": 7575, "estadio": 14143, "beauty": 5053, "sidewalk": 11996, "##med": 7583, "##rata": 14660, "1722": 26689, "byzantine": 8734, "detect": 11487, "fairfield": 18986, "37": 4261, "##nami": 28987, "##ecure": 29150, "bloomberg": 22950, "gardiner": 21143, "[unused196]": 201, "comb": 22863, "coliseum": 18338, "##\u5973": 30341, "house": 2160, "macedonian": 13037, "camp": 3409, "]": 1033, "felony": 24648, "mob": 11240, "tease": 18381, "encore": 19493, "chains": 8859, "bonded": 20886, "beef": 12486, "pulp": 16016, "anticipation": 11162, "harmony": 9396, "dishes": 10447, "beta": 8247, "goddard": 22547, "witty": 25591, "buccaneers": 21629, "gonna": 6069, "astro": 28625, "boiler": 15635, "establishing": 7411, "lan": 17595, "prisoner": 7267, "peptide": 25117, "##wall": 9628, "declaring": 13752, "registered": 5068, "nagoya": 24425, "bahia": 22474, "shakes": 10854, "scheduled": 5115, "norris": 15466, "crowe": 25657, "a": 1037, "remainder": 6893, "landings": 16805, "naughty": 20355, "sprung": 22057, "outfits": 22054, "escaped": 6376, "derive": 18547, "##\u2071": 30072, "historia": 19891, "950": 20317, "panthers": 12915, "##ism": 2964, "##sboro": 25623, "##\u0e25": 29954, "jeep": 14007, "white": 2317, "gaming": 10355, "mood": 6888, "paying": 7079, "completed": 2949, "derivatives": 16942, "absorption": 16326, "certificates": 17987, "##oge": 23884, "##\u11a8": 30020, "residency": 14079, "chimed": 27460, "thighs": 9222, "##\u3061": 30188, "elgin": 23792, "fundamentally": 24670, "sylvester": 20016, "helmets": 22674, "pockets": 10306, "cretaceous": 18122, "2005": 2384, "thereafter": 6920, "wind": 3612, "1994": 2807, "assault": 6101, "##ying": 14147, "democrats": 8037, "faded": 8105, "affect": 7461, "451": 28161, "despair": 13905, "relief": 4335, "jai": 17410, "chet": 25157, "repairing": 26296, "whoa": 23281, "larvae": 9673, "outs": 21100, "donaldson": 23164, "##fusion": 20523, "1713": 27016, "poe": 18922, "##wari": 20031, "sad": 6517, "\u0932": 1334, "searches": 17193, "different": 2367, "lottery": 15213, "##\u0bc1": 29933, "vanished": 9955, "manufacture": 9922, "licking": 17033, "wills": 17234, "##nius": 20447, "hell": 3109, "meg": 12669, "idle": 18373, "qu": 24209, "theater": 4258, "infant": 10527, "david": 2585, "amounted": 18779, "willy": 16172, "ali": 4862, "renovations": 15576, "inspired": 4427, "squash": 18794, "samoa": 15075, "carol": 8594, "martyr": 17216, "strongest": 10473, "viewpoint": 21386, "turtle": 13170, "##dgets": 28682, "flinched": 19201, "[unused616]": 621, "1695": 29140, "howe": 13358, "570": 24902, "316": 23980, "clergyman": 22232, "depictions": 20818, "webber": 19861, "dealt": 9411, "hot": 2980, "sacrificed": 20268, "\u56db": 1798, "actively": 8851, "add": 5587, "answered": 4660, "excavation": 16456, "1791": 14362, "numbers": 3616, "\uff0c": 1989, "volta": 26089, "rebuild": 14591, "cam": 11503, "whorls": 25637, "bathed": 24614, "import": 12324, "floyd": 12305, "berkeley": 8256, "##oki": 23212, "[unused372]": 377, "##ray": 9447, "spiral": 12313, "125": 8732, "coloring": 22276, "fulfilling": 21570, "pad": 11687, "##onal": 16026, "scales": 9539, "favorite": 5440, "17th": 5550, "th": 16215, "stella": 11894, "accomplishments": 17571, "indices": 29299, "prostitutes": 20833, "daisy": 10409, "highway": 3307, "attachment": 14449, "[unused939]": 944, "boots": 6879, "gaius": 19564, "[unused395]": 400, "##icus": 14239, "vehicles": 4683, "##\u68ee": 30408, "hana": 26048, "timmy": 27217, "1623": 29056, "building": 2311, "##piece": 11198, "sensed": 10596, "anybody": 10334, "plateau": 9814, "einstein": 15313, "bio": 16012, "spirituality": 21244, "inspections": 29589, "humanities": 11406, "##itas": 24317, "impressive": 8052, "pascal": 17878, "##ation": 3370, "\u4e4b": 1749, "shaken": 16697, "##ja": 3900, "motor": 5013, "2009": 2268, "bassett": 28303, "##iction": 28097, "whereabouts": 18913, "packet": 14771, "stunts": 28465, "academics": 15032, "orange": 4589, "expenses": 11727, "##ario": 16843, "awakening": 16936, "landed": 5565, "gown": 11739, "##ght": 13900, "##ude": 12672, "enrichment": 27226, "indifference": 25920, "kara": 13173, "rapids": 12775, "scarcely": 20071, "drones": 24633, "scrap": 15121, "rode": 8469, "malaria": 19132, "officials": 4584, "ezra": 16245, "##urbed": 29595, "midnight": 7090, "downloaded": 22817, "scrape": 26988, "tips": 10247, "forgiven": 24280, "concluding": 16228, "attacked": 4457, "respiratory": 16464, "neural": 15756, "guatemala": 11779, "##vu": 19722, "users": 5198, "slant": 27474, "dna": 6064, "twist": 9792, "afar": 28978, "villages": 4731, "\u2295": 1612, "hesitated": 9369, "apology": 12480, "organise": 22933, "##zd": 26494, "representatives": 4505, "volunteer": 6951, "truncated": 25449, "warming": 12959, "##anna": 25789, "verify": 20410, "##rift": 16338, "rosa": 9508, "hardy": 9532, "crazy": 4689, "##pate": 17585, "##uto": 16161, "huskies": 29471, "lenin": 17497, "spacecraft": 12076, "18th": 4985, "jeff": 5076, "inaugural": 7725, "298": 27240, "notice": 5060, "sticking": 13423, "##dran": 24914, "##ele": 12260, "##\u1166": 30009, "torso": 15190, "jaws": 16113, "##rant": 17884, "confused": 5457, "##\u6c37": 30421, "##aceous": 25560, "professorship": 22661, "women": 2308, "advises": 25453, "massive": 5294, "yeast": 21957, "confirm": 12210, "commencing": 25819, "rashid": 22080, "suspiciously": 21501, "staggered": 14648, "mathews": 23287, "czech": 5569, "midland": 12240, "[unused975]": 980, "elaine": 15263, "[unused924]": 929, "froze": 10619, "are": 2024, "##\u1103": 29993, "argentina": 5619, "atmosphere": 7224, "samurai": 16352, "audi": 20075, "fear": 3571, "no": 2053, "attendants": 26727, "permits": 14245, "moi": 25175, "richly": 26502, "neue": 27713, "unsuitable": 25622, "##tick": 26348, "##rito": 28414, "thriller": 10874, "appropriations": 22713, "este": 28517, "steward": 17946, "uniformly": 27423, "salad": 16521, "photographer": 8088, "##oum": 24778, "bombings": 20109, "implicated": 20467, "[unused654]": 659, "g": 1043, "phased": 21718, "ping": 17852, "[unused748]": 753, "##rts": 21217, "ding": 22033, "##\u1d48": 30034, "##tze": 23102, "vic": 10967, "error": 7561, "archive": 8756, "writers": 4898, "retail": 7027, "##gil": 20142, "dramatic": 6918, "##ples": 21112, "##ppy": 27659, "clutch": 15357, "\u0646": 1296, "marianne": 19887, "##hawks": 16043, "haifa": 21303, "repulsed": 24571, "[unused610]": 615, "proctor": 28770, "##\uff0c": 30515, "bs": 18667, "supporter": 10129, "syed": 19740, "grange": 18203, "niall": 21889, "ellie": 10707, "ebert": 22660, "\u092c": 1329, "normal": 3671, "##sworth": 12255, "reviewed": 8182, "animator": 25132, "paz": 18183, "##oration": 21223, "hartford": 13381, "conserved": 19995, "coastline": 15458, "[unused56]": 57, "##gie": 11239, "##\u1d56": 30040, "##500": 29345, "##\u9752": 30501, "none": 3904, "tyres": 24656, "hi": 7632, "##ruck": 29314, "galen": 21062, "lenses": 15072, "killings": 16431, "work": 2147, "stained": 9702, "joyce": 11830, "papers": 4981, "crude": 13587, "hectare": 20406, "slapping": 22021, "she": 2016, "size": 2946, "expect": 5987, "interchange": 8989, "lit": 5507, "catching": 9105, "attackers": 17857, "\u2091": 1561, "tianjin": 26216, "illustrated": 7203, "enraged": 18835, "unusual": 5866, "fujian": 29551, "frowned": 7335, "airlift": 20019, "torches": 24711, "strangely": 13939, "widened": 8723, "1654": 27445, "kolkata": 13522, "rehearsals": 24760, "##bara": 20709, "sparkle": 26831, "assessing": 20077, "##ensis": 9911, "##llar": 17305, "tanya": 19956, "watching": 3666, "homme": 26574, "attache": 29489, "[unused474]": 479, "muzzle": 17750, "migrate": 22806, "cuban": 9642, "ragged": 14202, "##\u2044": 30070, "1889": 6478, "respective": 7972, "receivers": 19278, "##fies": 14213, "##\u5e1d": 30364, "clinched": 18311, "joint": 4101, "ah": 6289, "gemma": 19073, "##ica": 5555, "1797": 14112, "biting": 12344, "reformer": 24767, "##jali": 28948, "gonzalez": 10121, "relocation": 18344, "researched": 18800, "shi": 11895, "1662": 25909, "twain": 24421, "illustrating": 28252, "##ulf": 21007, "offences": 18421, "arkansas": 6751, "podium": 14502, "##ues": 15808, "emphasizes": 20618, "atlantic": 4448, "##pal": 12952, "##gni": 29076, "##vina": 17948, "ours": 14635, "home": 2188, "begins": 4269, "engage": 8526, "oslo": 9977, "numbered": 8597, "##fighter": 20027, "##sberg": 11711, "picks": 11214, "breath": 3052, "castro": 11794, "##missible": 26770, "##mberg": 29084, "mia": 8764, "vertices": 18984, "##oria": 11069, "[unused664]": 669, "accidents": 13436, "\u2089": 1556, "suppliers": 20141, "starring": 4626, "concerns": 5936, "reckless": 18555, "liberty": 7044, "[unused120]": 125, "bracket": 21605, "\u9ad8": 1981, "archaeological": 7611, "minimal": 10124, "cranes": 27083, "around": 2105, "outputs": 27852, "##holding": 23410, "##tri": 18886, "voice": 2376, "intersect": 29261, "roanoke": 25899, "dug": 8655, "controlled": 4758, "##\u2207": 30123, "generator": 13103, "tufts": 25252, "analytics": 25095, "sliced": 15920, "strangers": 12358, "\u2228": 1603, "##inatory": 28230, "\u7530": 1911, "##ny": 4890, "oblivion": 24034, "packed": 8966, "vacancy": 15619, "##gley": 22971, "risky": 19188, "communal": 15029, "undoubtedly": 17319, "##berto": 21201, "precautions": 29361, "bride": 8959, "wrist": 7223, "noble": 7015, "logos": 25571, "arrived": 3369, "[unused402]": 407, "##\u2096": 30094, "il": 6335, "clenching": 23970, "devote": 23313, "appleton": 26050, "mouth": 2677, "doo": 20160, "driver": 4062, "##2": 2475, "travis": 10001, "collaborating": 20295, "ares": 23631, "ferris": 23202, "lumber": 13891, "recited": 24843, "wrecked": 18480, "ridges": 16386, "aground": 29406, "quicker": 19059, "26": 2656, "turnbull": 26439, "linguistic": 12158, "pulmonary": 21908, "##\u9673": 30498, "##\u4e45": 30274, "gothic": 7788, "##\u2297": 30140, "bromley": 27979, "profitable": 15282, "literally": 6719, "aback": 26575, "##nos": 15460, "bafta": 22284, "anaheim": 20835, "##fur": 27942, "briefs": 28760, "##\u03b1": 14608, "jealous": 9981, "hr": 17850, "99": 5585, "filippo": 28669, "154": 16666, "distraught": 25348, "[unused733]": 738, "virtues": 21560, "185": 15376, "quantum": 8559, "nazis": 13157, "watford": 21740, "val": 11748, "##\u0641": 29833, "knockout": 11369, "sovereignty": 12601, "nancy": 7912, "voltage": 10004, "fled": 6783, "##\u2087": 30083, "assemble": 21365, "hugged": 10308, "homicide": 18268, "belly": 7579, "mahmud": 25886, "coached": 8868, "begs": 27591, "##furt": 24428, "maclean": 22528, "derelict": 28839, "mystic": 17477, "slung": 20078, "tactical": 8608, "brown": 2829, "dempsey": 28165, "##bund": 27265, "liam": 8230, "tibet": 13319, "sera": 26358, "##\u0283": 29696, "factor": 5387, "\u5ca1": 1832, "anticipated": 11436, "chatham": 16727, "proposition": 14848, "1955": 3982, "frail": 25737, "translating": 22969, "melodies": 16106, "insulation": 25710, "disguise": 14249, "cheney": 23745, "text": 3793, "sergey": 22703, "nah": 20976, "internet": 4274, "##tarian": 28897, "tables": 7251, "maximal": 29160, "directly": 3495, "waist": 5808, "honda": 11990, "##day": 10259, "office": 2436, "##ssi": 18719, "tehsil": 20751, "ny": 6396, "##ages": 13923, "bentley": 15988, "##ites": 7616, "words": 2616, "liturgy": 21176, "##ou": 7140, "##kt": 25509, "joanna": 15730, "##zzy": 28753, "##quil": 26147, "##ination": 12758, "enthusiasm": 12024, "eras": 28500, "##\u116d": 30013, "progress": 5082, "branched": 21648, "rosenthal": 29062, "peshawar": 28777, "surrender": 7806, "sexes": 21024, "reliable": 10539, "##sic": 19570, "##edly": 26207, "1630": 24994, "##bas": 22083, "effects": 3896, "sermons": 20855, "pine": 7222, "trondheim": 26331, "promoted": 3755, "classic": 4438, "[unused192]": 197, "sealing": 23038, "bounds": 19202, "budge": 24981, "kinds": 7957, "1917": 4585, "emir": 23434, "wales": 3575, "invade": 18445, "##carriage": 21539, "writer": 3213, "\u0ba4": 1385, "tires": 13310, "rowing": 12037, "tatiana": 22725, "phosphorus": 25473, "challenged": 8315, "purification": 28406, "\u3093": 1691, "conscious": 9715, "sentence": 6251, "##ko": 3683, "productivity": 15836, "rivalry": 10685, "##nt": 3372, "\u05e8": 1265, "childish": 24282, "ruby": 10090, "##ndt": 26379, "financial": 3361, "louis": 3434, "##gos": 12333, "phoebe": 18188, "##mond": 11442, "avenge": 24896, "pigs": 14695, "##nse": 12325, "takeover": 15336, "prevalence": 20272, "bright": 4408, "##rber": 20473, "##laise": 25122, "cheshire": 13789, "\u2122": 1580, "##py": 7685, "##hea": 20192, "bae": 25818, "symphony": 6189, "##lk": 13687, "zev": 27909, "chili": 20238, "##partisan": 26053, "norwich": 12634, "##lies": 11983, "marina": 9985, "horst": 28565, "world": 2088, "vibration": 17880, "somali": 16831, "palatine": 22202, "cassandra": 15609, "mobilization": 25580, "scary": 12459, "strengthen": 12919, "##rgh": 27172, "[unused765]": 770, "##y": 2100, "contested": 7259, "##raz": 20409, "viola": 10482, "##tone": 5524, "intensely": 20531, "##fire": 10273, "##ply": 22086, "verse": 7893, "workshops": 9656, "mammalian": 26524, "raiders": 10642, "##yad": 25152, "duchy": 11068, "\u0e2d": 1421, "##ily": 6588, "squeak": 29552, "talked": 5720, "[unused577]": 582, "tab": 21628, "vikings": 13468, "matters": 5609, "beginnings": 16508, "presented": 3591, "torture": 8639, "sami": 17015, "mutation": 16221, "##oco": 24163, "outlook": 17680, "separated": 5459, "experiences": 6322, "rumble": 15658, "rifle": 5883, "except": 3272, "lashes": 16008, "haunting": 20161, "startup": 22752, "pastures": 24813, "croix": 18733, "emerging": 8361, "merlin": 15993, "commanded": 6311, "waters": 5380, "[unused370]": 375, "eruption": 17259, "utmost": 27917, "hepburn": 22004, "yusuf": 23495, "atheist": 23503, "influx": 18050, "perception": 10617, "dungeon": 16633, "since": 2144, "##eka": 19025, "what": 2054, "##the": 10760, "##tley": 18492, "ordering": 13063, "stamp": 11359, "ecole": 12431, "ca": 6187, "relying": 18345, "ode": 24040, "accountability": 17842, "kiev": 12100, "##hop": 18471, "[unused694]": 699, "witchcraft": 21599, "promises": 10659, "\u53f2": 1790, "muddy": 15405, "declined": 6430, "##\u66f8": 30397, "bois": 19651, "hannibal": 24181, "consecration": 24730, "squealed": 26175, "piano": 3682, "shields": 11824, "climax": 14463, "##}": 29642, "333": 21211, "neighbouring": 9632, "[unused217]": 222, "ballots": 17069, "##fted": 18915, "cruelty": 18186, "acidic": 24171, "perceptions": 23271, "##\u2033": 30067, "dialed": 21300, "##erated": 16848, "triangular": 14023, "arrive": 7180, "\u1112": 1469, "afghan": 12632, "dish": 9841, "discs": 15303, "schooner": 21567, "economic": 3171, "replacement": 6110, "expanded": 4423, "kerry": 11260, "azores": 28320, "augusta": 13635, "greensboro": 27905, "##itaire": 29422, "michelle": 9393, "bollywood": 16046, "\u099a": 1356, "maru": 26280, "stocks": 15768, "basilica": 13546, "##lub": 27959, "##ello": 15350, "generated": 7013, "ontario": 4561, "##49": 26224, "clutching": 14197, "saturday": 5095, "amore": 26297, "##ci": 6895, "##gible": 18507, "105": 8746, "[unused917]": 922, "##rg": 10623, "slalom": 19617, "titanium": 23431, "\u2080": 1547, "orchards": 22976, "creature": 6492, "patriotic": 14314, "##long": 10052, "##osing": 18606, "retains": 14567, "bali": 20222, "female": 2931, "epstein": 26646, "monkeys": 17059, "backed": 6153, "storey": 11676, "deeper": 6748, "posture": 16819, "employer": 11194, "asthma": 26180, "##\u0f56": 29967, "##dek": 24463, "vickers": 18571, "philology": 29286, "sing": 6170, "##en": 2368, "410": 19151, "##land": 3122, "echoed": 10187, "26th": 14935, "##\u00b4s": 21932, "revealed": 3936, "##\u4ee3": 30286, "[unused476]": 481, "fly": 4875, "taluk": 23140, "##pressive": 27484, "mechanism": 7337, "intercollegiate": 21587, "##bine": 16765, "camping": 13215, "marian": 14042, "partly": 6576, "##los": 10483, "intellect": 24823, "deployment": 10813, "browne": 15005, "hay": 10974, "##\u0458": 29761, "ensures": 21312, "sailors": 11279, "breathing": 5505, "1950": 3925, "unbeaten": 20458, "awarded": 3018, "groundwater": 22761, "##him": 14341, "practitioner": 18742, "sleepy": 17056, "##rist": 15061, "forks": 19896, "vanilla": 21161, "notes": 3964, "chloe": 9318, "##torium": 24390, "##ffa": 20961, "methodist": 8938, "##tt": 4779, "cat": 4937, "\u540d": 1795, "##zz": 13213, "exchequer": 28889, "poems": 5878, "-": 1011, "sundays": 14803, "dowry": 29603, "corruption": 7897, "fulfillment": 29362, "federally": 20892, "sleeping": 5777, "god": 2643, "##inium": 27585, "##stor": 23809, "##gio": 11411, "flexible": 12379, "parameters": 11709, "creamy": 24519, "pressured": 25227, "founder": 3910, "kimball": 26659, "amy": 6864, "intuitive": 29202, "course": 2607, "activity": 4023, "apache": 15895, "emerald": 14110, "\u1d65": 1510, "##rsten": 19020, "\u884c": 1945, "uh": 7910, "##\u2083": 11622, "like": 2066, "##wehr": 27156, "alexei": 21219, "##ma": 2863, "##uder": 29190, "##\u00a3": 29646, "##par": 19362, "development": 2458, "corbett": 24119, "squirrels": 29384, "valiant": 24329, "ba": 8670, "infants": 16725, "reprised": 22598, "pensacola": 26073, "gunther": 19384, "by": 2011, "303": 19988, "predominantly": 9197, "michel": 8709, "palette": 27396, "abbess": 28010, "canteen": 26449, "mariana": 22097, "msc": 23794, "usl": 22448, "confirmation": 13964, "##ours": 22957, "[unused956]": 961, "1747": 24522, "##igraphy": 23132, "##yn": 6038, "shipyard": 13858, "[unused938]": 943, "##runa": 26605, "accounting": 9529, "hard": 2524, "macdonald": 10406, "##hak": 20459, "terra": 14403, "[unused936]": 941, "##esthesia": 25344, "selects": 27034, "[unused972]": 977, "titan": 16537, "formulated": 19788, "noel": 10716, "##uising": 28580, "highlight": 12944, "[unused184]": 189, "[unused893]": 898, "wembley": 16538, "statistics": 6747, "gdp": 14230, "##psy": 18075, "livestock": 11468, "involves": 7336, "[unused221]": 226, "greenberg": 24190, "##edo": 26010, "thereof": 21739, "hotspur": 25985, "##tary": 18219, "inn": 7601, "##bling": 9709, "\u0576": 1231, "##oured": 16777, "\u03bd": 1167, "performs": 10438, "scriptures": 22481, "tabloid": 24173, "extract": 14817, "pieter": 23759, "occult": 27906, "subtle": 11259, "subdistrict": 24150, "traveller": 21916, "490": 22288, "##\u098f": 29887, "eine": 27665, "rose": 3123, "##linger": 23101, "tri": 13012, "##bags": 26813, "lao": 18805, "royals": 15426, "companions": 11946, "fascist": 14870, "##bled": 23242, "investments": 10518, "tick": 16356, "demolished": 7002, "captains": 15755, "misery": 14624, "##pies": 13046, "campo": 22339, "[unused973]": 978, "michelangelo": 27701, "ardent": 25314, "##mmer": 15810, "##vre": 12229, "[unused522]": 527, "rue": 13413, "shortstop": 25359, "##bei": 19205, "##\u110f": 30002, "baseman": 18038, "##ras": 8180, "##ously": 13453, "circular": 8206, "percussion": 6333, "raked": 22438, "sway": 17812, "friction": 15012, "nell": 20970, "##iki": 17471, "##ml": 19968, "huts": 23326, "##nall": 22270, "literal": 18204, "foreigner": 29524, "regarding": 4953, "tail": 5725, "empire": 3400, "\u0569": 1224, "##tical": 14656, "asean": 27974, "[unused260]": 265, "##wd": 21724, "\u03b1": 1155, "db": 16962, "blind": 6397, "\u2071": 1537, "##saka": 29289, "internacional": 27607, "lc": 29215, "[unused550]": 555, "record": 2501, "presenter": 10044, "metallic": 12392, "enriched": 25202, "reviewers": 15814, "maneuver": 17519, "lincolnshire": 16628, "##dge": 11818, "meantime": 12507, "telecast": 28803, "worse": 4788, "##mura": 16069, "legal": 3423, "##sc": 11020, "61": 6079, "ernie": 14637, "##\u2074": 30073, "hardly": 6684, "dancers": 10487, "distinctly": 19517, "louise": 8227, "##viere": 27087, "1664": 28485, "object": 4874, "##asurable": 28329, "focusing": 7995, "cursed": 10678, "archived": 9749, "else": 2842, "convert": 10463, "eased": 10987, "aero": 18440, "recalled": 7383, "dozen": 6474, "dreamer": 24726, "workshop": 8395, "formats": 11630, "index": 5950, "strasbourg": 18104, "1980s": 3865, "speedy": 26203, "meter": 8316, "producing": 5155, "styled": 13650, "consultant": 8930, "\u6226": 1856, "aubrey": 18961, "agnes": 11166, "disciple": 17849, "##\u0927": 29862, "natasha": 17399, "flirt": 27978, "##world": 11108, "expected": 3517, "whimper": 28544, "nash": 10594, "##iro": 9711, "landmark": 8637, "refurbished": 18662, "pig": 10369, "barney": 15377, "accolades": 27447, "##vey": 12417, "\u028c": 1134, "resistant": 13070, "##\u6587": 30387, "loop": 7077, "prodigy": 28334, "canoe": 14347, "transfers": 15210, "ter": 28774, "##roving": 22046, "devi": 14386, "positively": 13567, "coffee": 4157, "\u0448": 1203, "mosaic": 16061, "overall": 3452, "undo": 25672, "castes": 26254, "conical": 24750, "homes": 5014, "strict": 9384, "\u0e22": 1416, "chambers": 8477, "##inations": 22045, "plume": 26888, "sustaining": 22663, "monmouth": 20433, "mouthful": 28462, "teach": 6570, "galilee": 28928, "chaplain": 14011, "[unused528]": 533, "##lovic": 29356, "religious": 3412, "[unused460]": 465, "cairns": 21731, "confronts": 17628, "katz": 20729, "##arina": 27943, "musica": 21137, "halt": 9190, "malley": 25271, "gentlemen": 11218, "complain": 17612, "offenses": 25173, "populations": 7080, "enrollment": 10316, "##bbling": 15343, "1940s": 7675, "persecuted": 27666, "fenton": 27096, "subtropical": 11935, "##lene": 11474, "sentiment": 15792, "antennas": 26315, "specific": 3563, "diner": 15736, "utc": 11396, "##iver": 16402, "##\u30d8": 30247, "ratio": 6463, "coinage": 25396, "##\u6797": 30407, "classifications": 26739, "injured": 5229, "invasion": 5274, "iranian": 7726, "##ucher": 22368, "oven": 17428, "recovering": 13400, "callum": 15229, "scenarios": 16820, "##ris": 6935, "##lice": 13231, "##\u516b": 30297, "##\u1d62": 19109, "securely": 28999, "fashionable": 19964, "colonial": 5336, "legions": 23269, "lark": 23404, "backbone": 21505, "differ": 11234, "withdrawn": 9633, "##\u05d6": 29793, "oboe": 22523, "doctorate": 8972, "cerambycidae": 13168, "edition": 3179, "irregularities": 28868, "weekday": 16904, "mechanical": 6228, "defenses": 13345, "reality": 4507, "romance": 7472, "slam": 9555, "##log": 21197, "improvised": 19641, "abandon": 10824, "denton": 23906, "##ended": 21945, "alexandra": 10481, "melancholy": 22247, "##schen": 23796, "\u2286": 1611, "gupta": 20512, "fresno": 20840, "clearing": 8430, "fighting": 3554, "moscow": 4924, "chaired": 12282, "carts": 25568, "840": 28122, "abundance": 14531, "bullet": 7960, "\u2019": 1521, "notions": 21951, "##\u00aa": 29653, "##\u0570": 29775, "##fy": 12031, "##zko": 29002, "raged": 28374, "refrain": 20703, "guiana": 23568, "kenya": 7938, "nielsen": 13188, "unfolded": 23959, "policeman": 14460, "theories": 8106, "wage": 11897, "brushes": 22569, "sour": 14768, "fis": 27424, "chocolate": 7967, "ho": 7570, "levine": 17780, "stretches": 14082, "oakland": 9182, "dylan": 7758, "reliance": 17975, "pornographic": 26932, "stephan": 15963, "rates": 6165, "##ask": 19895, "customs": 8205, "ambassador": 6059, "\u5ba3": 1823, "arise": 13368, "##yang": 12198, "##oris": 21239, "affected": 5360, "generals": 11593, "roman": 3142, "##lini": 22153, "flop": 28583, "cook": 5660, "##ap": 9331, "acquisitions": 19530, "paid": 3825, "physically": 8186, "##borough": 10235, "champs": 29008, "1914": 4554, "behavior": 5248, "138": 15028, "##fall": 13976, "travelled": 7837, "##jian": 27685, "threatened": 5561, "billing": 25640, "distinguishing": 20852, "seventy": 10920, "debt": 7016, "##tight": 26143, "belongs": 7460, "definition": 6210, "glover": 20012, "rites": 17105, "[unused210]": 215, "outlined": 14801, "##mbling": 29256, "troubles": 13460, "warrant": 10943, "packets": 23730, "quo": 22035, "##nee": 24045, "pretty": 3492, "gallo": 25624, "verdict": 14392, "laughed": 4191, "[unused826]": 831, "forewings": 13211, "\u03ba": 1164, "\u00b0c": 6362, "##terol": 27833, "##minating": 27932, "rahman": 14364, "edison": 17046, "##brook": 9697, "listened": 7791, "1679": 27924, "sons": 4124, "graders": 23256, "variant": 8349, "signalling": 21919, "indiana": 5242, "usc": 15529, "initially": 3322, "rosewood": 29528, "eisenhower": 16551, "su": 10514, "shuffle": 23046, "##dron": 19440, "oblivious": 18333, "[unused702]": 707, "##ouin": 25058, "##\u5fe0": 30378, "porn": 22555, "welfare": 7574, "belize": 18867, "##sw": 26760, "moon": 4231, "##cliff": 27580, "##fully": 7699, "cartwright": 27513, "betrayed": 12056, "pharmacy": 13882, "writing": 3015, "magna": 20201, "credit": 4923, "landscaping": 28404, "##\u063a": 29831, "championship": 2528, "pleistocene": 25080, "recommends": 26021, "hong": 4291, "vin": 19354, "select": 7276, "cafes": 23812, "authorized": 9362, "establishments": 17228, "ronan": 18633, "garments": 21902, "##enes": 28553, "evidently": 15329, "halftime": 22589, "happier": 19366, "vie": 20098, "superfamily": 24169, "healing": 8907, "acheron": 21427, "regard": 7634, "bedford": 12003, "##erie": 17378, "\u0292": 1138, "##llon": 22179, "##ulsive": 23004, "151": 16528, "more": 2062, "administer": 21497, "\u0f63": 1435, "stem": 7872, "cleric": 29307, "[unused781]": 786, "ace": 9078, "cents": 16653, "act": 2552, "prayers": 12583, "exams": 13869, "backpack": 13383, "donkey": 20325, "\ufb02": 1985, "riga": 17557, "basque": 13915, "cramer": 29433, "rippled": 26862, "glowed": 16497, "colombo": 16224, "seriousness": 27994, "stricken": 16654, "lsu": 21849, "aristocracy": 22706, "[unused507]": 512, "pereira": 23857, "glamour": 22439, "[unused723]": 728, "parallels": 18588, "constable": 12294, "wasn": 2347, "eileen": 20495, "barrier": 8803, "material": 3430, "contestant": 10832, "##thes": 24138, "fragile": 13072, "elect": 11322, "dazed": 19720, "trilogy": 11544, "##\u09af": 29907, "##0s": 16223, "bohemian": 18063, "belts": 18000, "geo": 20248, "##nia": 6200, "ser": 14262, "[unused766]": 771, "prepared": 4810, "##lus": 7393, "ollie": 25208, "ages": 5535, "pee": 21392, "profile": 6337, "cassie": 8869, "##rup": 21531, "auschwitz": 24363, "##apa": 22068, "grouped": 15131, "fifty": 5595, "##ration": 8156, "eventually": 2776, "po": 13433, "##tment": 21181, "archdeacon": 21742, "##vid": 17258, "canucks": 26177, "##jiang": 21786, "celine": 24550, "slade": 18048, "ordinance": 16692, "\u671d": 1874, "bethel": 19375, "mussolini": 22554, "slain": 19668, "##inski": 19880, "colonel": 4327, "madly": 29179, "rounds": 6241, "sentimental": 23069, "encompasses": 13974, "expenditures": 22697, "airmen": 29437, "##ming": 6562, "pump": 10216, "narration": 21283, "warehouse": 9746, "renewal": 14524, "regretted": 18991, "49th": 25726, "\u751f": 1910, "atkinson": 18646, "september": 2244, "[unused652]": 657, "thief": 12383, "wnba": 25554, "x": 1060, "ark": 15745, "##made": 21565, "##sher": 19603, "slave": 6658, "booths": 27612, "planners": 27155, "1864": 6717, "##ability": 8010, "claremont": 23716, "writhing": 26185, "some": 2070, "rosy": 26851, "ammunition": 9290, "smug": 20673, "stuart": 6990, "chopper": 28057, "##oed": 29099, "deserve": 10107, "mr": 2720, "[unused794]": 799, "xi": 8418, "celebrations": 12035, "##fa": 7011, "reference": 4431, "exploit": 18077, "[unused821]": 826, "fried": 13017, "sections": 5433, "prague": 8634, "including": 2164, "##suke": 16867, "counts": 9294, "francais": 22357, "##\u90fd": 30487, "\u00b4": 1084, "challenges": 7860, "engineered": 13685, "1738": 28009, "less": 2625, "1807": 13206, "amos": 13744, "##\u11bc": 30025, "layla": 19786, "candidate": 4018, "whereas": 6168, "[unused428]": 433, "goin": 17249, "jeanne": 14537, "nightclub": 15479, "till": 6229, "organizational": 13296, "green": 2665, "1000": 6694, "windsor": 10064, "circuits": 13782, "thee": 14992, "mar": 9388, "bessie": 29298, "##garh": 13484, "advisers": 24205, "tuck": 18029, "distal": 29333, "fungi": 15289, "##athy": 17308, "opposition": 4559, "potatoes": 14629, "vendors": 17088, "hurling": 10839, "scratches": 25980, "##\u1165": 30008, "interruption": 24191, "##icular": 21412, "##zing": 6774, "poured": 8542, "obstruction": 27208, "jerome": 11120, "\u222a": 1605, "nbl": 28013, "jogged": 27812, "166": 18610, "county": 2221, "hamilton": 5226, "yearning": 29479, "macon": 20025, "reorganized": 14137, "1768": 19793, "retained": 6025, "bihar": 16178, "nad": 23233, "groove": 14100, "glamorgan": 23861, "botany": 17018, "preferences": 18394, "du": 4241, "compliant": 24577, "##owski": 15249, "parks": 6328, "patterned": 25336, "hedge": 17834, "skull": 7412, "thankful": 18836, "[unused174]": 179, "augsburg": 24362, "##\u30d2": 30245, "stephane": 26624, "##nni": 23500, "related": 3141, "shattering": 21797, "alam": 26234, "gossip": 13761, "##ima": 9581, "really": 2428, "collar": 9127, "oliver": 6291, "##sler": 20590, "##pped": 11469, "squads": 20191, "##eld": 14273, "jurassic": 19996, "symmetrical": 23476, "quarterfinals": 9237, "dump": 15653, "parrot": 22530, "pigeon": 16516, "\u8a9e": 1950, "stout": 18890, "1753": 23810, "neglect": 19046, "widows": 24835, "##\u0251": 29677, "trombone": 13914, "curse": 8364, "##olis": 20872, "broadcast": 3743, "whereupon": 26090, "opt": 23569, "##\u30b5": 30231, "parody": 12354, "thud": 20605, "[unused371]": 376, "switched": 7237, "upgrades": 18739, "graph": 10629, "considers": 10592, "##ttes": 14581, "devoid": 22808, "naturalist": 19176, "survivors": 8643, "strides": 22215, "hymns": 17777, "sabha": 11200, "##aly": 20766, "hilbert": 27434, "hill": 2940, "expression": 3670, "drugs": 5850, "charley": 20430, "##overs": 24302, "absently": 21284, "##rzburg": 29136, "byrd": 17845, "weakened": 11855, "motown": 22654, "inside": 2503, "assortment": 26285, "saxons": 28267, "silver": 3165, "bermuda": 13525, "ina": 27118, "##rth": 15265, "iris": 11173, "##dur": 24979, "##\u03c8": 29738, "kickoff": 25233, "##rger": 25858, "punjab": 9213, "quarters": 7728, "adolescence": 29101, "##tors": 6591, "piazza": 22463, "clinical": 6612, "##atal": 27815, "ambushed": 22168, "townland": 23635, "overheard": 20443, "##ropriation": 26121, "conservatives": 11992, "atp": 12649, "research": 2470, "heartbeat": 12251, "siblings": 9504, "kung": 18577, "monumental": 15447, "taxonomic": 27691, "specialised": 17009, "backyard": 16125, "##tch": 10649, "\u2153": 1581, "nato": 10079, "##vez": 26132, "foundry": 19853, "##\u53f8": 30317, "journalists": 8845, "disused": 26958, "##eur": 11236, "1685": 25053, "agrarian": 23226, "##heater": 27847, "breakup": 19010, "\u09a4": 1362, "ascribed": 28025, "fanny": 17813, "##lastic": 28723, "##ety": 27405, "lanka": 7252, "benedict": 12122, "lap": 5001, "social": 2591, "wreck": 12006, "networks": 6125, "clause": 11075, "##roll": 28402, "##jou": 23099, "proof": 6947, "pest": 20739, "##\u02d0": 23432, "eduardo": 14846, "shoulder": 3244, "##\u6625": 30393, "aragon": 16146, "heidi": 21372, "schedule": 6134, "360": 9475, "##tm": 21246, "darlington": 19667, "sheen": 20682, "##eves": 23047, "alain": 15654, "character": 2839, "impoverished": 25488, "minister": 2704, "[unused649]": 654, "heating": 10808, "sob": 17540, "enrique": 15769, "guy": 3124, "finale": 9599, "sabotage": 20223, "uhf": 20131, "elected": 2700, "sean": 5977, "confirming": 19195, "##xie": 16898, "human": 2529, "capped": 13880, "pierced": 16276, "winger": 16072, "foolish": 13219, "##\u6c35": 30420, "yunnan": 21607, "conquest": 9187, "witches": 12566, "process": 2832, "cooks": 26929, "nara": 27544, "hawke": 24882, "##ij": 28418, "scents": 29254, "##ggio": 20650, "espionage": 21003, "troy": 9553, "persistence": 28297, "##hammer": 19742, "valkyrie": 26696, "seymour": 13254, "devotion": 13347, "coasts": 20266, "##ioms": 29178, "package": 7427, "preserve": 7969, "quentin": 15969, "cain": 11557, "##rder": 26764, "satisfied": 8510, "differed": 19541, "inhabitants": 4864, "resin": 24604, "##and": 5685, "colliery": 19462, "##ddin": 18277, "shitty": 28543, "abdominal": 21419, "##oted": 27428, "bearded": 23905, "fielded": 20988, "mounted": 5614, "##\u043d\u0430": 19865, "ballad": 11571, "##skaya": 23070, "[unused687]": 692, "route": 2799, "##mussen": 29134, "[unused127]": 132, "##\u6751": 30404, "gretchen": 21625, "breeding": 8119, "gain": 5114, "##rot": 21709, "\u2665": 1625, "inevitably": 21268, "madden": 24890, "[unused408]": 413, "1952": 3999, "view": 3193, "recounted": 22906, "convection": 23849, "##balance": 26657, "quadrant": 29371, "demographic": 15982, "shaky": 15311, "khalifa": 27925, "##aud": 19513, "parish": 3583, "islands": 3470, "banda": 24112, "proven": 10003, "sud": 19219, "characterised": 17253, "mud": 8494, "cocaine": 16034, "screaming": 7491, "55th": 29075, "magical": 8687, "weekend": 5353, "##rook": 25399, "nigerian": 11884, "[unused354]": 359, "rediscovered": 26733, "##miya": 29312, "ag": 12943, "ph": 6887, "mist": 11094, "blacksmith": 20987, "kazakhstan": 11769, "##\u0632": 29823, "famed": 15607, "[unused909]": 914, "cone": 13171, "automated": 12978, "moving": 3048, "\u1165": 1472, "trembled": 14823, "1725": 25651, "##tail": 14162, "##\u4e16": 30271, "rides": 12271, "pajamas": 27621, "\u5b66": 1817, "bought": 4149, "##pati": 24952, "scattering": 17501, "boy": 2879, "fame": 4476, "saul": 16897, "##oma": 9626, "unitary": 22127, "shivered": 13927, "##park": 14432, "feeder": 21429, "pond": 8644, "##mming": 25057, "yer": 20416, "##lore": 20186, "restoration": 6418, "##lateral": 28277, "##growth": 26982, "waiting": 3403, "decreed": 28447, "aberdeen": 12080, "complexion": 28838, "ye": 6300, "bundles": 26825, "experiments": 7885, "establishment": 5069, "redding": 26687, "[unused316]": 321, "##ix": 7646, "edwards": 7380, "traffic": 4026, "##uting": 20807, "stamped": 20834, "##\u7ae0": 30458, "##\u110e": 30001, "recognised": 7843, "sprawling": 24199, "entirety": 15700, "compliance": 12646, "naked": 6248, "wolff": 23498, "messy": 18307, "optimal": 15502, "##oca": 24755, "punished": 14248, "critical": 4187, "##making": 12614, "alright": 10303, "ditch": 14033, "rapidly": 5901, "##oles": 29111, "anglican": 9437, "wise": 7968, "accessories": 16611, "[unused640]": 645, "creatures": 7329, "nebula": 25677, "##yon": 14001, "ua": 25423, "principal": 4054, "[unused663]": 668, "[unused695]": 700, "allmusic": 10477, "sixteen": 7032, "##lates": 26786, "poison": 9947, "##haling": 23896, "kelvin": 24810, "seam": 25180, "\u110b": 1463, "not": 2025, "westphalia": 22952, "[unused236]": 241, "automation": 19309, "participation": 6577, "famously": 18172, "shift": 5670, "flowering": 10902, "\u1d57": 1505, "targets": 7889, "bce": 10705, "forgiveness": 17213, "cries": 12842, "##wives": 23744, "negro": 12593, "guangzhou": 18693, "acquitted": 18538, "foe": 22277, "tsunami": 19267, "felipe": 17095, "ahl": 18347, "released": 2207, "awarding": 21467, "holds": 4324, "aggregate": 9572, "epilogue": 24297, "##itan": 25451, "gr": 24665, "##bh": 23706, "sergeant": 6722, "leading": 2877, "appropriated": 29223, "##ilis": 24411, "speeds": 10898, "pouch": 21445, "scattered": 7932, "yamamoto": 28318, "accumulation": 20299, "fake": 8275, "vomit": 23251, "deborah": 15555, "advising": 23875, "##\u3055": 30182, "salvage": 18340, "[unused356]": 361, "welcoming": 18066, "employers": 12433, "rec": 28667, "chronicle": 9519, "massachusetts": 4404, "401": 22649, "referees": 25118, "##\u02be": 29713, "clockwise": 22839, "##rva": 19146, "divorced": 9196, "cree": 27831, "##ija": 14713, "havoc": 22156, "##dina": 18979, "studio": 2996, "1634": 28502, "unbearable": 24257, "opponents": 7892, "depends": 9041, "rus": 22949, "brno": 28634, "[unused90]": 91, "wichita": 18614, "herzegovina": 11453, "booth": 9065, "experiencing": 13417, "wig": 24405, "##lyn": 9644, "invoked": 24959, "rome": 4199, "[unused896]": 901, "selfish": 14337, "##lford": 23211, "hangs": 17991, "dog": 3899, "recycling": 17874, "##va": 3567, "boer": 19945, "sake": 8739, "karachi": 15381, "pollard": 25513, "buyer": 17634, "bryn": 19904, "[unused629]": 634, "purchases": 17402, "explained": 4541, "##rase": 23797, "ruler": 7786, "[unused387]": 392, "cringed": 23952, "mural": 15533, "harmonies": 28594, "benoit": 21721, "##cott": 13124, "wrapping": 12252, "##hra": 13492, "pentagon": 20864, "indians": 6505, "##shan": 9688, "er": 9413, "brien": 9848, "categorized": 20427, "##\u0bc8": 29935, "twists": 21438, "hiking": 13039, "mccann": 28641, "disclosure": 19380, "extraordinary": 9313, "good": 2204, "hermann": 12224, "brody": 19631, "##lston": 21540, "olympic": 4386, "strategies": 9942, "##sley": 8002, "taxon": 28521, "vegetable": 15415, "goalscorer": 28602, "cohen": 9946, "descriptive": 22726, "archaeologists": 19254, "incidence": 18949, "sheath": 21867, "te": 8915, "winning": 3045, "##sf": 22747, "temperatures": 7715, "reggie": 17963, "##gu": 12193, "\u00be": 1093, "paw": 22195, "##ika": 7556, "dickens": 19675, "##oses": 27465, "eyelashes": 25150, "##oz": 18153, "##\u044c": 23742, "weapon": 5195, "##lists": 27103, "holstein": 18864, "fundamental": 8050, "uneasy": 15491, "critics": 4401, "##ometric": 28993, "andrew": 4080, "rocky": 6857, "##\u0e22": 29952, "169": 18582, "stress": 6911, "bart": 12075, "effective": 4621, "becomes": 4150, "##polis": 17699, "commission": 3222, "pastoral": 13645, "hilda": 21589, "showcases": 27397, "luigi": 15153, "perimeter": 13443, "announced": 2623, "lowlands": 26411, "##oper": 25918, "hysteria": 29004, "hoarse": 21221, "sheep": 8351, "smoothly": 15299, "rot": 18672, "##pg": 26952, "##\u0272": 29689, "notification": 26828, "~": 1066, "eyre": 26975, "##maker": 8571, "oneself": 25763, "seoul": 10884, "velocity": 10146, "monique": 26194, "##khov": 25495, "[unused698]": 703, "sewing": 22746, "heiress": 20020, "bats": 12236, "warnings": 16234, "vladimir": 8748, "lyman": 27587, "dance": 3153, "reactive": 22643, "##bs": 5910, "poker": 11662, "uruguay": 11724, "organism": 15923, "##\u30ad": 30227, "stacked": 16934, "unification": 16905, "\u09bf": 1379, "\u30ad": 1701, "1794": 13199, "tidal": 15065, "##oft": 15794, "##pool": 16869, "##rst": 12096, "adaptation": 6789, "strengths": 20828, "##non": 8540, "mickey": 11021, "vaccine": 17404, "250": 5539, "examinations": 14912, "sinister": 16491, "bernard": 6795, "##sions": 27466, "unbroken": 29505, "praise": 8489, "slots": 19832, "arabia": 9264, "royal": 2548, "frederic": 15296, "shifting": 9564, "link": 4957, "rely": 11160, "indicators": 20390, "say": 2360, "alleging": 23294, "\u11ab": 1485, "resumed": 7943, "plausible": 24286, "plush": 27729, "prefect": 19402, "##oint": 25785, "aldo": 28163, "##hid": 27511, "probing": 28664, "straw": 13137, "sentai": 28650, "levant": 24485, "prison": 3827, "tremendous": 14388, "\u02b8": 1144, "willingly": 18110, "relaxing": 19613, "merchant": 6432, "prelude": 19508, "##\u27e9": 30156, "##\u00b4": 29658, "priscilla": 25193, "##cating": 18252, "tuning": 17372, "grid": 8370, "\u05d1": 1242, "##lices": 29146, "barcelona": 7623, "naval": 3987, "coa": 28155, "##jack": 17364, "lions": 7212, "firms": 9786, "swat": 25414, "seas": 11915, "jase": 18626, "barbie": 22635, "attend": 5463, "background": 4281, "1702": 26776, "invisible": 8841, "chiba": 27368, "worshipped": 22876, "haute": 18535, "affluent": 22666, "from": 2013, "commissioners": 12396, "airways": 13095, "haas": 22996, "##\u0435\u0432\u0438\u0447": 22646, "[unused545]": 550, "jerry": 6128, "lets": 11082, "catholics": 10774, "metro": 6005, "activation": 13791, "vi": 6819, "outfielder": 21033, "##ronia": 28140, "##slow": 26338, "charting": 17918, "contributing": 8020, "folk": 5154, "1653": 29309, "serious": 3809, "1740": 21757, "conductors": 23396, "barley": 21569, "storage": 5527, "##\u03b6": 29724, "drain": 12475, "aluminium": 14794, "thatcher": 21127, "somber": 28587, "novelty": 21160, "##itung": 28813, "disapproval": 21406, "exponential": 27258, "hindus": 18221, "regime": 6939, "##bilities": 14680, "swelled": 21851, "eclipse": 13232, "##cent": 13013, "blinded": 20641, "woodstock": 21028, "##nsky": 25655, "dimension": 9812, "magnetic": 8060, "cozy": 26931, "##\u9f8d": 30508, "episode": 2792, "tad": 18819, "scully": 25686, "##ppe": 21512, "##tish": 24788, "leopold": 12752, "[unused976]": 981, "christina": 12657, "canton": 8770, "bathrooms": 28942, "ain": 7110, "minnesota": 5135, "rev": 7065, "checked": 7039, "##urn": 14287, "##utive": 28546, "##rial": 14482, "faithful": 11633, "recipient": 7799, "franklin": 5951, "ike": 25209, "worked": 2499, "nazi": 6394, "allegheny": 21192, "type": 2828, "[unused945]": 950, "caf": 24689, "precision": 11718, "228": 22238, "redesign": 25136, "breadth": 25291, "call": 2655, "drinks": 8974, "critique": 16218, "disagreement": 18185, "keating": 25865, "campaigned": 16196, "charles": 2798, "freak": 11576, "##naut": 24619, "eastward": 17318, "confusing": 16801, "##ths": 26830, "avenues": 20859, "grant": 3946, "##ast": 14083, "amounts": 8310, "phones": 11640, "gail": 18576, "[unused791]": 796, "escape": 4019, "##xton": 14226, "garrett": 9674, "[unused850]": 855, "rail": 4334, "inflicted": 17303, "coup": 8648, "during": 2076, "felicia": 27579, "gaines": 28645, "information": 2592, "flanagan": 26558, "vertebrae": 25517, "phillip": 10852, "comparisons": 18539, "unlock": 19829, "risen": 13763, "bowled": 19831, "##nesia": 21509, "\u026b": 1120, "\u0e40": 1423, "here": 2182, "previously": 3130, "milestone": 19199, "##ges": 8449, "minded": 13128, "roland": 8262, "considering": 6195, "operations": 3136, "##\u30ed": 30261, "script": 5896, "\u05d4": 1245, "##ey": 3240, "sponsor": 10460, "gardner": 11764, "children": 2336, "highly": 3811, "fighter": 4959, "brink": 20911, "##run": 15532, "##ig": 8004, "tribal": 8807, "spreads": 20861, "hyun": 21108, "kindergarten": 11793, "meets": 6010, "commune": 5715, "stalin": 13125, "##iner": 26455, "##ella": 8411, "1853": 8933, "[unused860]": 865, "interactions": 10266, "mercenaries": 19331, "steak": 21475, "images": 4871, "langley": 19094, "summarized": 22539, "custom": 7661, "goodwin": 19928, "kumar": 9600, "commemorating": 20646, "##ege": 24746, "honoured": 15546, "fulton": 17049, "murderers": 28882, "cow": 11190, "falling": 4634, "##uf": 16093, "##static": 16677, "##ud": 6784, "ob": 27885, "bishopric": 20664, "##rand": 13033, "##gum": 22850, "stade": 15649, "cheated": 22673, "drivers": 6853, "restrained": 19868, "amnesia": 29222, "[unused547]": 552, "cab": 9298, "1646": 28783, "nominee": 9773, "red": 2417, "skulls": 21542, "##\u30b7": 30232, "kitten": 18401, "1788": 15622, "usa": 3915, "##ones": 21821, "1640": 21533, "##elli": 13348, "[unused86]": 87, "moderately": 17844, "spray": 12509, "[unused279]": 284, "##eg": 13910, "statutes": 18574, "beginning": 2927, "attributes": 12332, "\u067e": 1302, "buster": 18396, "\u5fe0": 1852, "##ink": 19839, "niger": 16842, "landau": 28570, "bench": 6847, "leith": 29011, "km": 2463, "guided": 8546, "flavour": 28126, "fremantle": 20358, "extracted": 15901, "chest": 3108, "48th": 27787, "155": 14168, "barrister": 19805, "##ew": 7974, "diversity": 8906, "cavaliers": 25096, "65": 3515, "osaka": 13000, "##cula": 19879, "oman": 16640, "##arion": 27548, "cleaned": 12176, "[unused841]": 846, "pauline": 15595, "andhra": 14065, "##aire": 14737, "##\u0e15": 29947, "easily": 4089, "skeletal": 20415, "##inking": 29377, "talks": 7566, "negotiation": 19905, "[unused540]": 545, "flanking": 24958, "packers": 15285, "includes": 2950, "bun": 21122, "ban": 7221, "topics": 7832, "itunes": 11943, "irony": 19728, "rumored": 22710, "wheeled": 17320, "singleton": 28159, "center": 2415, "masonry": 18103, "tumbling": 21552, "commenting": 15591, "serve": 3710, "notable": 3862, "celaena": 29252, "##\u3053": 30181, "harlan": 24276, "yep": 15624, "hispanic": 6696, "right": 2157, "\u207f": 1546, "##rford": 26430, "##gly": 25643, "##irus": 26013, "sentencing": 23280, "nodes": 14164, "comics": 5888, "[unused564]": 569, "submarine": 6982, "##gel": 12439, "upper": 3356, "fledged": 26712, "[unused386]": 391, "2018": 2760, "alleviate": 24251, "1993": 2857, "clarissa": 25260, "oskar": 28626, "\u10e2": 1453, "##\u5bbf": 30352, "##connected": 24230, "##enia": 19825, "\u0bb3": 1393, "##grapher": 18657, "jimenez": 22790, "##\u0e27": 29955, "##\u653f": 30386, "closeness": 28398, "cannot": 3685, "emerged": 6003, "183": 18677, "##\u4e95": 30280, "medications": 20992, "cobb": 17176, "manager": 3208, "analyzed": 16578, "discussions": 10287, "strategically": 23972, "cameroon": 13841, "dorothy": 9984, "\u0e32": 1422, "\u3059": 1658, "ethernet": 26110, "renee": 17400, "matthews": 12351, "##uw": 25974, "wednesday": 9317, "##bridge": 6374, "\u266d": 1627, "workplace": 16165, "##\u2093": 30092, "##mack": 26945, "sunrise": 13932, "[unused498]": 503, "1800": 9807, "fabulous": 18783, "restricting": 26996, "[unused346]": 351, "rhino": 24091, "##29": 24594, "gallery": 3916, "essentially": 7687, "##enham": 23580, "realism": 15650, "rafe": 15819, "perfectly": 6669, "almighty": 26668, "nj": 19193, "gingerly": 26961, "health": 2740, "##oxide": 28479, "africa": 3088, "headline": 17653, "##rton": 11715, "sheffield": 8533, "invaders": 17347, "skirts": 18184, "motions": 15323, "mal": 15451, "##kin": 4939, "dome": 8514, "tugged": 10621, "##ler": 3917, "subjective": 20714, "1846": 9244, "forbidden": 10386, "##opa": 29477, "\u0987": 1349, "selma": 28112, "contrast": 5688, "##imov": 25299, "##cology": 19824, "danish": 5695, "##ount": 21723, "\u5f73": 1845, "\u09a8": 1366, "rewards": 19054, "ladies": 6456, "mainly": 3701, "exposure": 7524, "satire": 18312, "jacobite": 28725, "taunton": 28181, "\u09b8": 1376, "\u4e09": 1741, "##ska": 8337, "blink": 12373, "tender": 8616, "kenji": 25894, "vague": 13727, "##tsu": 10422, "##eron": 26534, "spanned": 18212, "renew": 20687, "hilt": 21184, "subdivisions": 22095, "##jure": 25243, "##lten": 29005, "##ola": 6030, "##shaft": 25679, "mandir": 22700, "brewster": 23009, "joined": 2587, "rub": 14548, "\u05e3": 1260, "onslaught": 28644, "##ock": 7432, "##\u306b": 30194, "cummings": 20750, "cheer": 15138, "gloss": 27068, "exasperated": 24379, "2": 1016, "##iga": 13340, "##kins": 14322, "##rud": 28121, "falcons": 14929, "267": 25491, "12": 2260, "turns": 4332, "inclined": 13050, "[unused156]": 161, "##\u79c0": 30454, "virtually": 8990, "hum": 14910, "linguistics": 15397, "hickory": 28158, "##unk": 16814, "chaotic": 19633, "framework": 7705, "organised": 7362, "wooden": 4799, "host": 3677, "uppsala": 25720, "parochial": 28773, "##osity": 25949, "regiments": 10435, "dignitaries": 27960, "regan": 16964, "reverse": 7901, "twenty20": 22240, "azerbaijan": 8365, "cm": 4642, "helmut": 24515, "##pic": 24330, "kepler": 28219, "maintained": 5224, "ignacio": 22988, "raju": 25098, "[unused415]": 420, "daniel": 3817, "soils": 13622, "punched": 11696, "congratulations": 23156, "pol": 14955, "inch": 4960, "butt": 10007, "starred": 5652, "supposedly": 10743, "##\u0b9a": 29919, "intersecting": 27294, "proportional": 14267, "##ken": 7520, "simultaneously": 7453, "1891": 6607, "priced": 21125, "chat": 11834, "liquid": 6381, "marketplace": 18086, "incorrectly": 19721, "##rain": 21166, "torah": 16297, "##uen": 24997, "babylon": 17690, "sid": 15765, "primaries": 27419, "governing": 8677, "feeds": 14172, "rented": 12524, "hysterical": 25614, "gui": 26458, "##line": 4179, "orchestra": 4032, "##iness": 9961, "rohan": 28605, "conscience": 13454, "ju": 18414, "verbal": 12064, "##\u5927": 30336, "##\u0e32": 29958, "##cturing": 19159, "investigates": 28062, "web": 4773, "manufactured": 7609, "reflecting": 10842, "sinai": 20837, "scarf": 18982, "##idal": 16975, "kris": 19031, "rebecca": 9423, "##ffen": 18032, "geology": 13404, "##cts": 16649, "##otho": 29288, "ultraviolet": 26299, "jumper": 21097, "##\u5d0e": 30360, "##igate": 28731, "##oop": 18589, "optimism": 27451, "jennie": 27557, "biker": 28988, "##ition": 22753, "occupying": 13992, "##)": 29620, "##ants": 11390, "housed": 7431, "[unused71]": 72, "##ieving": 25587, "junction": 5098, "urges": 23876, "piles": 18526, "wal": 24547, "asphalt": 16295, "playoffs": 7555, "declaration": 8170, "inducted": 8120, "introductions": 25795, "carry": 4287, "heads": 4641, "distributions": 20611, "caine": 19881, "##bal": 10264, "fetal": 25972, "aggression": 14974, "remake": 12661, "configuration": 9563, "doherty": 23798, "toulouse": 17209, "defenders": 12534, "pac": 14397, "cerro": 25498, "\u00a31": 14534, "leary": 22986, "##qui": 15549, "##berry": 9766, "tried": 2699, "drown": 19549, "typed": 21189, "##tro": 13181, "tie": 5495, "coming": 2746, "##keeper": 13106, "between": 2090, "cows": 17188, "hitch": 27738, "earrings": 27212, "hauled": 13161, "inheritance": 12839, "##dis": 10521, "superhero": 16251, "switch": 6942, "publications": 5523, "\u300d": 1642, "dutch": 3803, "subscription": 15002, "anthropological": 28395, "telegram": 23921, "galileo": 21514, "##lein": 19856, "hussain": 20093, "retreating": 17512, "rama": 14115, "civilizations": 24784, "railroad": 4296, "gathering": 7215, "colony": 5701, "\u5b80": 1818, "homosexuality": 15949, "mw": 12464, "turnout": 15512, "conversely": 18868, "emphasized": 13155, "useful": 6179, "##omy": 16940, "freddie": 15528, "##\u2044\u2084": 27392, "##\u2205": 30121, "descending": 15127, "live": 2444, "##on": 2239, "forgetting": 17693, "marissa": 22767, "etat": 17997, "brooklyn": 6613, "sampled": 18925, "denote": 19090, "phrase": 7655, "##\u09ac": 29904, "##chemist": 24229, "dawn": 6440, "sofie": 26359, "mandate": 11405, "bedfordshire": 28430, "##raya": 29539, "lima": 12967, "hide": 5342, "dora": 21008, "connections": 7264, "rabbis": 25602, "skye": 16590, "##\u6708": 30398, "##phi": 21850, "1845": 9512, "263": 25246, "unauthorized": 24641, "##powered": 27267, "marjorie": 21562, "rafael": 10999, "vigor": 24474, "revisions": 24699, "worth": 4276, "simplicity": 17839, "##ndo": 15482, "##ito": 9956, "munich": 7469, "##inal": 13290, "superhuman": 27061, "\u0925": 1324, "peugeot": 26385, "refuse": 10214, "licence": 11172, "##\u30ab": 30226, "patna": 29565, "000": 2199, "##xa": 18684, "intervening": 26623, "halves": 23672, "servicemen": 26714, "poets": 9736, "largest": 2922, "sounded": 5015, "defendants": 16362, "retreat": 7822, "spiked": 25362, "picasso": 22457, "dir": 16101, "predictions": 20932, "##ctable": 23576, "commands": 10954, "trees": 3628, "maurice": 7994, "350": 8698, "federation": 4657, "symmetry": 14991, "barrel": 8460, "mueller": 26774, "tendencies": 20074, "annexed": 13291, "##encia": 27742, "colbert": 23928, "signals": 7755, "##mana": 24805, "##\u2122": 30108, "mysteries": 15572, "fills": 17469, "tribunal": 12152, "##zquez": 22938, "did": 2106, "tempo": 13657, "##ange": 22043, "consecutive": 5486, "stanton": 15845, "combustion": 16513, "brownish": 19437, "fond": 13545, "intimately": 29024, "zhao": 15634, "vancouver": 6930, "benefited": 19727, "##nock": 18057, "60th": 20928, "##works": 9316, "##rra": 11335, "supplements": 25654, "wellness": 25860, "wr": 23277, "##dable": 20782, "logs": 15664, "deterioration": 26118, "mandated": 16714, "container": 11661, "unbelievable": 23653, "##pia": 19312, "symbolic": 12613, "\u30b1": 1703, "1833": 11040, "ud": 20904, "acacia": 24766, "aided": 11553, "##nian": 11148, "lure": 17256, "##ope": 17635, "\u05d3": 1244, "arc": 8115, "sebastian": 6417, "##\u03bb": 29727, "3000": 11910, "aft": 16638, "boxer": 10423, "23rd": 13928, "##ced": 11788, "ferrara": 28635, "3d": 7605, "##\u211d": 30107, "hornet": 26795, "serbs": 16757, "cells": 4442, "##music": 27275, "wwf": 16779, "eel": 24315, "##uca": 18100, "##foot": 13064, "bust": 13950, "renault": 14605, "##mic": 7712, "walnut": 18489, "##tar": 7559, "scientology": 23845, "egan": 27889, "vincent": 6320, "[unused518]": 523, "generations": 8213, "##\u043b": 29436, "centered": 8857, "gigs": 20929, "typhoon": 15393, "##iste": 27870, "tee": 17170, "sentences": 11746, "jace": 10352, "fragment": 15778, "bug": 11829, "##tour": 21163, "promise": 4872, "\u03b8": 1162, "##ln": 19666, "##lden": 28476, "##\u767a": 30440, "flourished": 17893, "mcbride": 18958, "comedian": 9971, "predominant": 21047, "##ess": 7971, "pricing": 20874, "naples": 10553, "batavia": 28917, "william": 2520, "##words": 22104, "##mbre": 19908, "##turing": 16037, "##dent": 16454, "hid": 11041, "kang": 16073, "cicero": 23080, "pau": 29025, "pronounced": 8793, "[unused894]": 899, "functions": 4972, "inflammatory": 20187, "\u2192": 1585, "liberal": 4314, "membranes": 24972, "cheerful": 18350, "##\u0964": 29880, "langdon": 15232, "shipment": 22613, "knew": 2354, "asha": 24595, "kidney": 14234, "dresser": 16641, "mandy": 18193, "inferior": 14092, "nawab": 26543, "masses": 11678, "whipping": 23016, "specify": 20648, "model": 2944, "tampa": 9925, "campos": 26925, "##nza": 16786, "mala": 28935, "##iy": 28008, "missiles": 10815, "ru": 21766, "document": 6254, "##het": 27065, "inward": 20546, "repertoire": 13646, "##lysis": 26394, "\u1110": 1467, "[unused580]": 585, "wink": 16837, "##hett": 28499, "[unused885]": 890, "dustin": 24337, "##\u05df": 29802, "brackets": 19719, "manpower": 22039, "pub": 9047, "##sas": 20939, "refuses": 10220, "festivals": 7519, "sheds": 25999, "speaking": 4092, "bristol": 7067, "offices": 4822, "\u5d0e": 1834, "fours": 23817, "spoke": 3764, "##orus": 21694, "[unused420]": 425, "above": 2682, "##\u5e73": 30365, "joins": 9794, "mhz": 11413, "##nb": 27698, "##st": 3367, "##ga": 3654, "dispatch": 18365, "genre": 6907, "smirked": 18775, "flipped": 9357, "caps": 9700, "che": 18178, "orphanage": 18504, "correct": 6149, "indie": 10271, "gustave": 27973, "1977": 3355, "##\u00f7": 29669, "##sum": 17421, "##hang": 18003, "projectile": 25921, "clan": 6338, "category": 4696, "victims": 5694, "handicap": 15822, "consistency": 18700, "jordanian": 26276, "wouldn": 2876, "eps": 20383, "genealogical": 29606, "[unused12]": 13, "librarian": 13850, "barnet": 26864, "michaels": 17784, "##nell": 9091, "drills": 28308, "newest": 14751, "crete": 19111, "resolution": 5813, "journey": 4990, "rebels": 8431, "##strom": 15687, "amtrak": 20208, "panel": 5997, "bag": 4524, "remaining": 3588, "fruit": 5909, "bernardino": 21370, "entertaining": 14036, "1866": 7647, "drawings": 9254, "lim": 18525, "sung": 7042, "playable": 16854, "##nie": 8034, "##ecin": 28191, "[unused158]": 163, "2a": 23409, "furious": 9943, "violet": 8766, "306": 24622, "##\u0252": 29678, "temporary": 5741, "toe": 11756, "masjid": 27779, "##systems": 29390, "fullback": 21803, "lanterns": 26078, "guild": 9054, "##\u5c1a": 30356, "##yme": 25219, "lists": 7201, "##llus": 20159, "##vian": 18073, "accidentally": 9554, "layne": 22452, "magnet": 16853, "jalan": 28410, "stimulus": 19220, "##toy": 29578, "knows": 4282, "nana": 17810, "communicating": 20888, "pacing": 15732, "[unused726]": 731, "respond": 6869, "##hg": 25619, "equally": 8053, "looming": 23430, "##laid": 24393, "184": 19681, "membership": 5779, "consoles": 22659, "tr": 19817, "isabel": 11648, "clearer": 24509, "waving": 12015, "nicholson": 16955, "cindy": 15837, "##rane": 18053, "##gh": 5603, "bridge": 2958, "sunk": 10417, "confidential": 18777, "ins": 16021, "##itating": 16518, "debuting": 24469, "signaled": 22319, "coloration": 28757, "impulse": 14982, "wing": 3358, "practicing": 12560, "exciting": 10990, "saxophone": 8283, "apps": 18726, "reinforce": 19444, "syndicate": 16229, "convent": 10664, "duane": 27319, "medallion": 22541, "late": 2397, "novels": 6002, "bordered": 11356, "christian": 3017, "##nu": 11231, "eureka": 21142, "crossings": 20975, "footed": 28856, "paste": 19351, "another": 2178, "disqualification": 27782, "prove": 6011, "calmed": 20869, "peeling": 28241, "##\u044b": 29113, "sanford": 21153, "textile": 12437, "preventing": 10723, "knitting": 26098, "portable": 12109, "289": 27054, "spaces": 7258, "1928": 4662, "cyrillic": 15522, "merge": 13590, "topography": 21535, "neurons": 15698, "novice": 23131, "tanker": 20135, "brock": 13899, "[unused843]": 848, "##cked": 18141, "##gli": 25394, "[unused595]": 600, "extraction": 14676, "pediatric": 23614, "christoph": 21428, "##hes": 15689, "theodor": 21448, "appreciate": 9120, "bees": 13734, "johannesburg": 15976, "lakers": 18264, "fiscal": 10807, "leisure": 12257, "downs": 12482, "bliss": 13670, "##ography": 9888, "aquitaine": 24973, "approach": 3921, "alignment": 12139, "andover": 29463, "pavel": 18635, "fines": 21892, "apocalypse": 16976, "##vered": 25896, "##yeh": 25673, "interpretation": 7613, "harrison": 6676, "ringing": 13060, "clicks": 29225, "syllables": 20732, "##\u21d2": 30119, "lightweight": 12038, "technologies": 6786, "bobo": 27418, "stage": 2754, "snakes": 12971, "competitive": 6975, "distribute": 16062, "hindi": 9269, "##gin": 11528, "##power": 11452, "airplanes": 24042, "sized": 7451, "530": 23523, "##lz": 23858, "##cule": 21225, "rooms": 4734, "robinson": 6157, "##asian": 24145, "gustavo": 24801, "cinemas": 19039, "##ibly": 17296, "departments": 7640, "##hausen": 13062, "brood": 25565, "guards": 4932, "dodge": 11898, "sophomore": 13758, "##aja": 22734, "##dong": 17679, "##rgos": 22280, "kicker": 22652, "docking": 25776, "intercept": 19115, "##ignment": 24838, "kiel": 20963, "attended": 3230, "##kov": 7724, "##\u6c38": 30422, "dq": 25410, "sovereign": 11074, "directory": 14176, "tunnel": 5234, "pioneers": 13200, "bulbs": 25548, "guineas": 22385, "##vies": 25929, "generosity": 26161, "%": 1003, "##otype": 26305, "##nut": 24072, "fm": 4718, "rightful": 27167, "ratified": 17673, "ticked": 26019, "wish": 4299, "##scope": 26127, "sends": 10255, "landon": 20642, "manipulating": 26242, "inched": 25330, "blow": 6271, "curate": 27530, "mosques": 21922, "thanksgiving": 15060, "tokugawa": 22065, "brodie": 27379, "species": 2427, "enigma": 26757, "\u203a": 1533, "altering": 22552, "hoping": 5327, "assert": 20865, "[unused37]": 38, "traverse": 20811, "##uk": 6968, "\u30b3": 1704, "bailey": 8925, "specialization": 28031, "classmate": 23175, "##bility": 8553, "[unused632]": 637, "ascending": 22316, "carlson": 22226, "256": 17273, "davy": 23255, "sculptor": 10160, "##tosis": 25950, "##75": 23352, "propelled": 15801, "onset": 14447, "##nes": 5267, "[unused207]": 212, "guildford": 26353, "minority": 7162, "katherine": 9477, "caution": 14046, "assists": 8456, "engineer": 3992, "bricks": 14219, "\u0b9f": 1384, "##pack": 23947, "tornadoes": 22668, "elm": 17709, "speakers": 7492, "guam": 16162, "##70": 19841, "##cultural": 29415, "biotechnology": 20353, "disputes": 11936, "##tor": 4263, "pic": 27263, "\u0f53": 1429, "##lana": 16695, "oceans": 17401, "##lled": 11001, "miranda": 9392, "warp": 24136, "##rave": 22401, "247": 23380, "vedic": 25824, "bothered": 11250, "hee": 18235, "polished": 12853, "reproduce": 21376, "vegetation": 10072, "let": 2292, "two": 2048, "\u0290": 1136, "unconscious": 9787, "guitarists": 28523, "bits": 9017, "staple": 18785, "socialism": 14649, "palo": 24326, "##khan": 26370, "##iti": 25090, "depression": 6245, "imperialism": 28087, "inventions": 21644, "basins": 22739, "##odes": 19847, "##itative": 29293, "churchill": 10888, "paige": 17031, "usable": 24013, "negotiate": 13676, "sanjay": 29590, "supported": 3569, "wikipedia": 16948, "bison": 22285, "martina": 23508, "replica": 15059, "stampede": 29375, "glide": 21096, "inspection": 10569, "refugee": 13141, "nat": 14085, "shed": 8328, "generate": 9699, "##time": 7292, "##\u05d1": 29789, "jackets": 17764, "footprint": 24319, "prey": 8336, "console": 10122, "ways": 3971, "endeavors": 28809, "nov": 13292, "##\u0b9f": 29920, "idf": 24011, "mayfield": 27224, "fell": 3062, "##\u03b5": 29723, "##adi": 17190, "[unused689]": 694, "repeated": 5567, "meritorious": 22053, "recipe": 17974, "livery": 18475, "hound": 19598, "##wad": 26016, "##\u25a0": 30144, "##uki": 14228, "having": 2383, "comprised": 11539, "gujarat": 14288, "dying": 5996, "mei": 19734, "wilton": 26407, "commitments": 17786, "manuscript": 8356, "##ions": 8496, "monsieur": 21380, "seattle": 5862, "recorder": 14520, "##\u0909": 29849, "recreation": 8640, "##\u25aa": 30145, "brianna": 25558, "##icia": 24108, "stylistic": 24828, "urine": 17996, "nuts": 12264, "[unused772]": 777, "develop": 4503, "hurricanes": 17035, "madonna": 11284, "##\u6ca2": 30424, "member": 2266, "climb": 7105, "earls": 27371, "documenting": 23138, "agree": 5993, "scrambled": 13501, "systematically": 23087, "naming": 10324, "##wig": 16279, "##mering": 27851, "prix": 5431, "tallest": 13747, "##church": 22743, "chewing": 17492, "salts": 23480, "immortal": 12147, "##rno": 19139, "barony": 19365, "##utable": 23056, "mule": 20568, "curl": 15390, "danzig": 26669, "climate": 4785, "adolph": 28564, "conducted": 4146, "institutes": 12769, "shipping": 7829, "recycled": 22207, "applicant": 23761, "startled": 9696, "##\u2012": 30050, "caitlin": 27555, "roi": 25223, "biodiversity": 17194, "##\u706b": 30432, "partisan": 14254, "exchange": 3863, "1934": 4579, "1892": 6527, "torres": 13101, "myspace": 24927, "coral": 11034, "[unused941]": 946, "elbow": 8999, "affirmed": 19768, "trustees": 9360, "pal": 14412, "\u11b8": 1488, "prosecuted": 21651, "sorted": 19616, "returned": 2513, "\u03c8": 1178, "missionary": 8696, "voivodeship": 7225, "jail": 7173, "mecca": 21340, "##vac": 24887, "territory": 3700, "pronunciation": 15498, ".": 1012, "\u4e3b": 1747, "##ction": 7542, "feel": 2514, "worcestershire": 20218, "illustrious": 26150, "buried": 3950, "##uso": 26658, "enormous": 8216, "arab": 5424, "unclear": 10599, "##\u0989": 29886, "vineyard": 18621, "girl": 2611, "##cock": 13959, "financially": 13732, "weaker": 15863, "plainly": 24250, "restart": 23818, "tally": 19552, "internationals": 27340, "patches": 13864, "heaven": 6014, "##gai": 23805, "smallest": 10479, "\u0584": 1239, "##bin": 8428, "verdi": 20580, "untouched": 22154, "sparrow": 19479, "neighbour": 20065, "##cter": 21162, "freiburg": 22871, "##old": 11614, "##ssed": 29417, "pleasures": 26552, "pods": 26723, "##\u7acb": 30457, "##ony": 16585, "exhibiting": 22922, "beast": 6841, "desires": 14714, "rodents": 28156, "victories": 9248, "objective": 7863, "##bm": 25526, "islamic": 5499, "ro": 20996, "shelter": 7713, "impatient": 17380, "##umb": 25438, "archbishop": 6507, "screenplay": 9000, "##chio": 23584, "##\u09c7": 29917, "putnam": 20230, "\u793a": 1923, "settled": 3876, "plump": 26731, "\u0649": 1299, "\u0686": 1303, "erased": 23516, "kingdom": 2983, "282": 26267, "prelate": 26595, "[unused944]": 949, "into": 2046, "industry": 3068, "scan": 13594, "##minster": 24431, "li": 5622, "##onda": 29067, "collaborated": 8678, "suffers": 17567, "##nai": 26416, "italian": 3059, "##ailed": 17440, "sonora": 26647, "berlin": 4068, "snuggled": 26867, "entrepreneurs": 17633, "##\u6226": 30382, "commissions": 13239, "blogger": 28205, "[unused746]": 751, "##fin": 16294, "gothenburg": 22836, "uss": 7234, "##ditional": 27064, "conviction": 10652, "gaston": 18572, "##aro": 10464, "coalition": 6056, "throttle": 24420, "plumbing": 27902, "shared": 4207, "chilling": 27017, "capitalism": 16498, "agency": 4034, "verbs": 16025, "discoveries": 15636, "presided": 15506, "playful": 18378, "recognition": 5038, "baron": 5797, "unincorporated": 7754, "assistant": 3353, "sisters": 5208, "wool": 12121, "rigged": 25216, "effectiveness": 12353, "mitchell": 6395, "northampton": 15944, "http": 8299, "##lr": 20974, "true": 2995, "[unused666]": 671, "foreign": 3097, "civilian": 6831, "##sle": 25016, "##ractive": 26884, "##rr": 12171, "##ggs": 21314, "##eb": 15878, "##sos": 17063, "gathers": 29438, "##rted": 17724, "##ivated": 21967, "##gaon": 27073, "[unused665]": 670, "##keepers": 24764, "exile": 8340, "gong": 17242, "judgments": 26186, "distinction": 7835, "vertigo": 28246, "[unused835]": 840, "goethe": 23173, "ahead": 3805, "avoided": 9511, "jamaica": 9156, "viking": 12886, "foraging": 26912, "##\u1d2c": 30026, "bromwich": 27888, "helped": 3271, "##idi": 28173, "ancestor": 13032, "##dah": 18417, "\u05be": 1240, "\u7acb": 1931, "officer": 2961, "##\u0449": 29754, "warships": 15964, "anxiously": 23403, "##nl": 20554, "mariano": 22695, "calgary": 10112, "gottingen": 23607, "reappeared": 23040, "warehouses": 23319, "consulting": 10552, "51st": 26017, "efficient": 8114, "derivative": 13819, "possibility": 6061, "susie": 23917, "elites": 27021, "lyons": 16642, "pamphlet": 19899, "smoky": 20629, "airs": 14369, "farming": 7876, "\u0e23": 1417, "gangster": 20067, "pin": 9231, "venetian": 15510, "premiership": 11264, "impatience": 28011, "pray": 11839, "intervals": 14025, "atom": 13787, "##tated": 16238, "42": 4413, "obituary": 20815, "##rew": 15603, "carole": 24348, "##oth": 14573, "norton": 10770, "dh": 28144, "##pled": 21132, "eliza": 13234, "##iana": 11410, "haul": 14655, "##ici": 28775, "blur": 14819, "da": 4830, "##\u898b": 30474, "suits": 11072, "englishman": 25244, "converting": 16401, "flip": 11238, "battled": 19787, "fears": 10069, "decline": 6689, "walking": 3788, "strange": 4326, "slight": 7263, "leopard": 16240, "76": 6146, "##\u0142a": 22972, "sat": 2938, "##\u0916": 29852, "leonard": 7723, "1933": 4537, "aching": 14750, "##iec": 23783, "accusations": 13519, "violence": 4808, "choked": 12444, "cannes": 14775, "\u0cbe": 1402, "sketches": 12741, "[unused39]": 40, "##\u8cb4": 30479, "nebraska": 8506, "separation": 8745, "resurgence": 26303, "decisive": 13079, "garde": 14535, "tenure": 7470, "eating": 5983, "hilarious": 26316, "alonso": 17649, "bobbie": 27731, "garion": 12523, "topped": 9370, "criticizing": 21289, "motionless": 19917, "youthful": 22446, "reacher": 22970, "mexican": 4916, "b1": 29491, "jasper": 14791, "1860": 7313, "##izzly": 29266, "near": 2379, "##bie": 11283, "\u0f54": 1430, "watered": 27129, "maximum": 4555, "slightest": 15989, "wall": 2813, "wounded": 5303, "malayalam": 12998, "##rose": 13278, "wilkinson": 16237, "accomplish": 14570, "casey": 9036, "bodies": 4230, "dad": 3611, "confluence": 13693, "liability": 14000, "lotus": 13030, "jules": 11044, "title": 2516, "afrikaans": 28673, "mina": 19808, "##eke": 23941, "##ott": 14517, "spectators": 12405, "geometric": 14965, "apologies": 25380, "firstly": 15847, "miscellaneous": 25408, "##imated": 20592, "con": 9530, "alumnus": 19678, "##as": 3022, "slacks": 27786, "##uta": 13210, "intercepted": 16618, "peering": 16740, "banking": 8169, "nc": 13316, "exercised": 17747, "unofficially": 29322, "amusing": 19142, "bronx": 14487, "louie": 17438, "monica": 9018, "##orestation": 25794, "peggy": 14911, "able": 2583, "hobart": 14005, "asleep": 6680, "duncan": 7343, "valuation": 26004, "door": 2341, "##\u3092": 30216, "reef": 12664, "buck": 10131, "##vert": 16874, "##\u03c4": 29734, "housing": 3847, "occasional": 8138, "enough": 2438, "##hir": 11961, "maharashtra": 12434, "draped": 15098, "##rl": 12190, "terminus": 7342, "sea": 2712, "devices": 5733, "###": 29614, "##than": 21604, "l": 1048, "gastropod": 10953, "requires": 5942, "##row": 10524, "noodles": 27130, "muslim": 5152, "##arium": 17285, "nfl": 5088, "##ogist": 22522, "navigable": 28538, "\u1d9c": 1511, "chinese": 2822, "1849": 9037, "rink": 18416, "widely": 4235, "loosened": 22456, "##haven": 14650, "akin": 17793, "australia": 2660, "towns": 4865, "##\u2022": 30063, "bands": 4996, "surrounding": 4193, "externally": 27223, "shuffled": 18764, "##ia": 2401, "steer": 20634, "##\u4e5f": 30276, "enabling": 12067, "entropy": 23077, "##zation": 9276, "warmed": 17336, "cheaper": 16269, "comprises": 8681, "gala": 16122, "arrangement": 6512, "##promising": 25013, "clyde": 12085, "\u7a7a": 1930, "##hedral": 27310, "##vocation": 19152, "doom": 12677, "visit": 3942, "lucy": 7004, "courageous": 26103, "vu": 24728, "\u5065": 1768, "unix": 19998, "vendor": 21431, "poisoning": 16149, "petitioned": 22527, "balfour": 27560, "maldives": 25059, "wood": 3536, "solitude": 22560, "##uel": 16284, "##ing": 2075, "delegation": 10656, "paterson": 19162, "##llo": 7174, "potsdam": 26554, "nix": 23330, "blanca": 27538, "greater": 3618, "utrecht": 18361, "##owing": 14138, "coveted": 28821, "francoise": 28979, "pilgrims": 17992, "modest": 10754, "erroneously": 29411, "silesian": 20453, "elliptic": 29413, "judged": 13224, "##ct": 6593, "[unused69]": 70, "slams": 25967, "liege": 17766, "informing": 21672, "gorilla": 23526, "partisans": 20762, "disneyland": 25104, "services": 2578, "michele": 15954, "##\u0baa": 29924, "lookout": 19052, "landowner": 20270, "disgust": 12721, "carthage": 21959, "lasers": 23965, "clauses": 24059, "##mata": 21022, "##bia": 11607, "dortmund": 23912, "##mes": 7834, "monstrous": 21668, "\u3057": 1657, "knowing": 4209, "columbian": 25882, "weight": 3635, "##ley": 3051, "seat": 2835, "##not": 17048, "generic": 12391, "anatomical": 28141, "arguing": 9177, "observe": 11949, "dragoons": 28069, "[unused618]": 623, "knock": 7324, "enable": 9585, "penny": 10647, "contest": 5049, "##nant": 16885, "microwave": 18302, "lady": 3203, "weeping": 19750, "indications": 24936, "experimenting": 23781, "gum": 16031, "viz": 26619, "terraces": 25633, "lumpur": 17761, "means": 2965, "[unused117]": 122, "\u5f35": 1844, "258": 24398, "contestants": 10584, "hanging": 5689, "smiling": 5629, "americans": 4841, "\u05d0": 1241, "guilty": 5905, "serbian": 6514, "\u65e5": 1864, "1992": 2826, "forsyth": 29434, "everything": 2673, "wyoming": 10622, "relativity": 20805, "flu": 19857, "##rchy": 29389, "demi": 27668, "vulture": 27588, "gifts": 9604, "jared": 8334, "##65": 26187, "56th": 29087, "[unused135]": 140, "wrong": 3308, "senator": 5205, "cathy": 18305, "pounded": 13750, "\u0634": 1283, "##lau": 17298, "gregg": 18281, "embankment": 22756, "kazakh": 25907, "[unused776]": 781, "san": 2624, "blossom": 20593, "##ame": 14074, "play": 2377, "##planes": 26634, "broadcasts": 8960, "##lding": 24573, "##stein": 8602, "emperor": 3750, "##\u0280": 29693, "mick": 10872, "1835": 10150, "1888": 6690, "hemingway": 27299, "[unused477]": 482, "\u2083": 1550, "translator": 11403, "nylon": 27201, "coupe": 15130, "shamrock": 28782, "baffled": 29088, "sponge": 25742, "blooded": 26064, "frequent": 6976, "novel": 3117, "ascot": 29036, "ninja": 14104, "label": 3830, "schmidt": 12940, "oil": 3514, "##rogen": 22991, "\u0255": 1113, "zion": 19999, "tam": 17214, "seventeen": 9171, "##erin": 23282, "223": 20802, "galaxy": 9088, "\u1d47": 1497, "beneficial": 15189, "enforce": 16306, "hilltop": 25566, "iec": 24940, "sonar": 24609, "\u063a": 1289, "mexico": 3290, "##\u0925": 29860, "rachel": 5586, "assyrian": 19950, "circles": 7925, "weathered": 28445, "[unused742]": 747, "leads": 5260, "raises": 13275, "##eca": 19281, "leone": 13363, "demon": 5698, "gould": 14913, "offer": 3749, "##tower": 23196, "##ce": 3401, "##uno": 27819, "opening": 3098, "##ryl": 23320, "topology": 19587, "franciscan": 19420, "notch": 18624, "noteworthy": 19144, "\u2264": 1608, "jets": 9924, "ta": 11937, "##zuka": 22968, "tango": 17609, "horseshoe": 23449, "maddy": 20789, "solicitor": 15468, "elmer": 21464, "voyager": 23493, "[unused301]": 306, "starter": 11753, "assigns": 24022, "##oj": 29147, "##abi": 28518, "welcomed": 10979, "run": 2448, "is": 2003, "pigeons": 27567, "appealing": 16004, "crowns": 24364, "markham": 26197, "realizing": 9301, "olympus": 26742, "segments": 9214, "pack": 5308, "alvaro": 24892, "defences": 16828, "precipitation": 13511, "grinding": 16153, "impression": 8605, "ib": 21307, "portion": 4664, "politics": 4331, "influencing": 25870, "exeter": 12869, "huffed": 25014, "wilbur": 26151, "aggregation": 28041, "nationality": 10662, "178": 19289, "baptized": 19775, "wanda": 20848, "flutter": 23638, "modify": 19933, "maid": 10850, "##cina": 28748, "loyal": 8884, "starvation": 22611, "preceding": 11003, "##resses": 25932, "\u00ac": 1078, "acclaimed": 10251, "payments": 10504, "violations": 13302, "##\u0142aw": 19704, "strained": 12250, "rhymes": 24468, "humphrey": 15462, "[unused300]": 305, "##\u897f": 30473, "false": 6270, "contacts": 10402, "corrections": 20983, "viewing": 10523, "elector": 20374, "wesley": 11482, "##cloth": 23095, "##agger": 27609, "exclude": 23329, "touring": 6828, "57": 5401, "reverend": 10547, "unesco": 12239, "georgetown": 12982, "surged": 18852, "homemade": 25628, "lorraine": 13895, "settles": 27221, "1836": 10081, "compromised": 20419, "leap": 11679, "father": 2269, "engineers": 6145, "tinted": 25577, "persist": 29486, "overthrow": 16857, "vane": 23334, "##port": 6442, "shandong": 25768, "widespread": 6923, "isaiah": 18850, "[unused743]": 748, "bud": 13007, "##walker": 26965, "[unused188]": 193, "decay": 13121, "##under": 20824, "yellowstone": 29231, "abortion": 11324, "ego": 13059, "annum": 28907, "class": 2465, "abbot": 11428, "kicks": 14590, "motel": 14901, "##rret": 27032, "routine": 9410, "moths": 14885, "margarita": 24570, "candidates": 5347, "##rsa": 22381, "bjp": 24954, "\u0f62": 1434, "integrated": 6377, "##zy": 9096, "motives": 17108, "pathogen": 26835, "swimmers": 21669, "apostle": 20121, "\u00a35": 27813, "redevelopment": 15582, "consisting": 5398, "mosque": 8806, "steele": 12872, "##mot": 18938, "politically": 10317, "##cript": 23235, "\u028a": 1132, "##ili": 18622, "distinct": 5664, "##iu": 17922, "dressed": 5102, "\u1d49": 1499, "monuments": 10490, "remained": 2815, "coventry": 13613, "circa": 12800, "collected": 5067, "##tai": 15444, "[unused807]": 812, "insulted": 23637, "##vus": 27500, "philipp": 20765, "shrines": 22562, "dividing": 16023, "wonders": 16278, "##m": 2213, "replied": 3880, "##\u5bfa": 30353, "comical": 29257, "\u209b": 1570, "theaters": 12370, "ascent": 16354, "evangelical": 11295, "initiatives": 11107, "swindon": 22350, "sides": 3903, "floppy": 28491, "##won": 19291, "##uated": 16453, "1971": 3411, "crabs": 26076, "[unused627]": 632, "monument": 6104, "##wski": 10344, "percy": 11312, "possessed": 8679, "suicidal": 26094, "billions": 25501, "genus": 3562, "quarterback": 9074, "cumberland": 12310, "evelyn": 12903, "##\u10d2": 29976, "##oll": 14511, "frs": 25188, "195": 17317, "kraft": 26680, "aesthetics": 20749, "38": 4229, "eats": 20323, "hoc": 21929, "tide": 10401, "priory": 14284, "\u4ec1": 1758, "passions": 25289, "convertible": 22840, "##rio": 9488, "goran": 28356, "originally": 2761, "irving": 12415, "archers": 23118, "##ff": 4246, "kochi": 27603, "lucifer": 24184, "fe": 10768, "connell": 17199, "upward": 10745, "75th": 25092, "edinburgh": 5928, "[unused170]": 175, "supposed": 4011, "ligament": 25641, "navajo": 22440, "survive": 5788, "##\u00a6": 29649, "the": 1996, "griffin": 9258, "joanne": 23459, "analogy": 23323, "\u0442": 1197, "crash": 5823, "madrid": 6921, "\u0432": 1182, "strengthened": 13949, "withdrawal": 10534, "mayhem": 26865, "mckay": 16225, "arsenal": 9433, "b": 1038, "cult": 8754, "##mism": 26725, "##hn": 7295, "locks": 11223, "chimneys": 28885, "##ratic": 23671, "realm": 8391, "clapped": 18310, "disturbances": 24535, "[unused147]": 152, "##d": 2094, "surprised": 4527, "venues": 9356, "[unused235]": 240, "velvet": 10966, "demise": 13614, "adherents": 25712, "rattled": 19252, "##upt": 29441, "educators": 19156, "catfish": 23723, "vantage": 27274, "summary": 12654, "elk": 18995, "sighted": 19985, "##inate": 14776, "##kus": 22332, "vest": 17447, "##lock": 7878, "nosed": 29338, "flanked": 15874, "counting": 10320, "microphone": 15545, "confident": 9657, "implements": 22164, "happens": 6433, "ufo": 24321, "hahn": 24266, "lobby": 9568, "##\u2c7c": 30157, "particular": 3327, "undeveloped": 29341, "designed": 2881, "sexuality": 13798, "rejection": 13893, "offspring": 13195, "##iah": 12215, "engages": 24255, "funnel": 25102, "[unused229]": 234, "colleges": 6667, "mckenna": 21749, "##\u5fb7": 30374, "##vie": 13469, "use": 2224, "1701": 26059, "sha": 21146, "domesday": 22310, "hezbollah": 25713, "##vate": 16952, "featuring": 3794, "moines": 23286, "convict": 20462, "ala": 21862, "mammal": 25476, "[unused534]": 539, "##suka": 26544, "slower": 12430, "prologue": 18877, "ip": 12997, "clermont": 27956, "spheres": 19885, "enemies": 6716, "brutally": 23197, "issuing": 15089, "chapel": 4970, "repaired": 13671, "##oc": 10085, "sited": 28603, "##gative": 26792, "experts": 8519, "giant": 5016, "donnell": 18016, "riding": 5559, "501": 16202, "baronet": 8693, "vain": 15784, "beer": 5404, "##formed": 29021, "architect": 4944, "##ggy": 22772, "1785": 17262, "##acker": 25418, "destiny": 10461, "those": 2216, "toledo": 13163, "dia": 22939, "##lved": 26832, "117": 12567, "removal": 8208, "colleague": 11729, "comedy": 4038, "goodbye": 9119, "yeomanry": 26883, "beethoven": 15461, "charging": 13003, "crashing": 12894, "bundesliga": 14250, "##\u03bf\u03c5": 26789, "kata": 29354, "booker": 16674, "headlining": 26533, "\u30c3": 1711, "producers": 6443, "gaul": 26522, "glossy": 19504, "havre": 28890, "##well": 4381, "##\u05e0": 29803, "antwerp": 14003, "54th": 29570, "\u30ca": 1715, "sasha": 14673, "apocalyptic": 27660, "conscription": 26329, "twenty": 3174, "safari": 23591, "allowance": 21447, "karlsruhe": 26660, "lau": 21360, "souza": 26598, "\u2190": 1583, "[unused411]": 416, "albanian": 9408, "retorted": 24056, "baltic": 11275, "trajectory": 22793, "creaked": 28068, "intimidated": 28028, "barefoot": 22985, "##was": 17311, "conservatoire": 29233, "inhabit": 21490, "warrior": 6750, "##\u5fa1": 30373, "##\u0111": 29671, "indicating": 8131, "sign": 3696, "champaign": 28843, "experimental": 6388, "roam": 25728, "##\u30f3": 30263, "indirectly": 17351, "tito": 20712, "maltese": 18563, "mace": 19382, "telephone": 7026, "[unused692]": 697, "##af": 10354, "reopened": 11882, "palais": 22113, "##ctic": 13306, "observers": 14009, "1907": 5528, "bulls": 12065, "lowest": 7290, "customer": 8013, "plumage": 28764, "fright": 25966, "yong": 18999, "cassidy": 13737, "surgeon": 9431, "[unused488]": 493, "sterile": 25403, "reached": 2584, "periphery": 23275, "ruth": 7920, "retailer": 20196, "catalonia": 16711, "##mark": 10665, "calabria": 29430, "pitted": 25895, "nineteen": 11977, "##nx": 26807, "bunch": 9129, "keys": 6309, "supplier": 17024, "##nched": 19282, "##\u6c0f": 30417, "720": 22857, "mouthed": 20521, "##mology": 20570, "deficit": 15074, "beads": 17530, "roses": 10529, "greene": 11006, "1936": 4266, "##if": 10128, "[unused375]": 380, "reclaimed": 23119, "[unused292]": 297, "##hyl": 29598, "##vd": 16872, "appreciation": 12284, "[unused908]": 913, "4": 1018, "telecommunications": 12108, "reunion": 10301, "cardiovascular": 22935, "eyebrows": 8407, "barracks": 10492, "ndp": 21915, "acceptable": 11701, "\u0bbe": 1395, "rings": 7635, "\u3051": 1654, "informs": 15670, "longitude": 20413, "submission": 12339, "documentary": 4516, "shoots": 11758, "vanishing": 24866, "problem": 3291, "##dl": 19422, "flung": 14016, "lectured": 19206, "jaenelle": 20757, "genius": 11067, "invitational": 20129, "sega": 16562, "wearing": 4147, "further": 2582, "##finger": 20349, "##hand": 11774, "\u0274": 1124, "modifications": 12719, "denise": 15339, "[unused511]": 516, "robert": 2728, "eye": 3239, "theoretical": 9373, "##ezer": 25733, "haze": 16332, "tucson": 17478, "##ente": 15781, "preceded": 11677, "[unused513]": 518, "thumping": 25996, "criticized": 6367, "texas": 3146, "warring": 28509, "polytechnic": 14466, "heel": 12073, "magnolia": 24659, "brave": 9191, "soy": 25176, "miles": 2661, "vintage": 13528, "experimented": 20918, "270": 13756, "minorities": 14302, "##\u5b80": 30344, "##around": 24490, "\u30db": 1722, "tissues": 14095, "##\ufb02": 30511, "reaching": 4285, "interests": 5426, "self": 2969, "governance": 10615, "##etta": 16549, "obsidian": 29042, "unison": 18732, "armenia": 10110, "halted": 12705, "##ovich": 12303, "jaguar": 16490, "glenn": 9465, "preparatory": 13485, "m2": 25525, "stripe": 18247, "weak": 5410, "drained": 11055, "rhea": 24775, "need": 2342, "##word": 18351, "##worm": 22769, "mortals": 23844, "george": 2577, "inexpensive": 23766, "graves": 9729, "curvature": 25045, "##app": 29098, "latham": 28737, "huey": 29503, "relationship": 3276, "rudolf": 12794, "memoirs": 13251, "1838": 9931, "2007": 2289, "person": 2711, "\u4e0b": 1743, "donor": 15009, "##liga": 14715, "investigation": 4812, "retrieved": 5140, "##lian": 15204, "do": 2079, "keith": 6766, "emilia": 20417, "bradford": 9999, "queen": 3035, "##auer": 21126, "dhabi": 23153, "1827": 12309, "figures": 4481, "sf": 16420, "evolving": 20607, "alberta": 7649, "ohio": 4058, "wry": 24639, "##zza": 20715, "ultimately": 4821, "umm": 26114, "flatly": 24295, "snort": 26759, "intake": 13822, "##tose": 22282, "savannah": 10891, "[unused167]": 172, "##gen": 6914, "shell": 5806, "ing": 13749, "commemorative": 17524, "scotia": 9676, "predator": 15267, "rum": 19379, "\u0940": 1342, "inference": 28937, "fontana": 27182, "cinematographer": 19245, "##iary": 17302, "[unused775]": 780, "descriptions": 13271, "monterey": 19860, "word": 2773, "figuring": 23218, "diplomatic": 8041, "1759": 21667, "maris": 23787, "rebelled": 25183, "lawsuits": 20543, "##57": 28311, "leung": 26037, "mcconnell": 28514, "vii": 8890, "##\u0f60": 29969, "focuses": 7679, "servants": 8858, "westbound": 24717, "on": 2006, "##\u2153": 30109, "bangkok": 12627, "kills": 8563, "galerie": 17941, "mound": 12048, "##rable": 16670, "reconciliation": 16088, "addresses": 11596, "##\u0621": 29815, "punish": 16385, "##etti": 18319, "marcia": 22548, "sequencing": 24558, "announcement": 8874, "detention": 12345, "jubilee": 13078, "contribution": 6691, "lithium": 22157, "composing": 16572, "costing": 22173, "stables": 16232, "flutes": 28453, "butch": 17520, "hacking": 23707, "malaysian": 11843, "\\": 1032, "##gled": 11533, "wroc\u0142aw": 25160, "cadence": 23620, "intermittent": 23852, "marvelous": 28851, "necks": 26082, "clusters": 12906, "offers": 4107, "##itation": 18557, "doctors": 7435, "##graphs": 27341, "\u014b": 1106, "holiness": 27692, "[unused289]": 294, "##adia": 25205, "digging": 10443, "begin": 4088, "regulars": 24945, "##ctric": 22601, "murderer": 13422, "seminary": 8705, "##\u5143": 30295, "myths": 17218, "cockpit": 13828, "admits": 14456, "dagger": 10794, "granddaughter": 12787, "fill": 6039, "##nished": 28357, "wiping": 14612, "henderson": 9481, "1770": 17711, "##cam": 28727, "strokes": 13692, "pass": 3413, "hyderabad": 13624, "ideology": 13165, "girlfriends": 27408, "ought": 11276, "strain": 10178, "obligatory": 26471, "##kura": 28260, "[unused378]": 383, "\u0454": 1212, "ferrari": 13632, "might": 2453, "##\u5b50": 30342, "collateral": 24172, "ivy": 7768, "\u2095": 1564, "\u0281": 1128, "pathology": 19314, "##\u09b2": 29909, "seton": 28796, "##sis": 6190, "eta": 27859, "safeguard": 28805, "cooper": 6201, "##kos": 15710, "##ows": 15568, "lights": 4597, "<": 1026, "terminated": 12527, "##ique": 7413, "##icio": 27113, "rhode": 9763, "defected": 26330, "speaks": 8847, "languages": 4155, "commodity": 19502, "##nko": 16107, "loving": 8295, "visitation": 28877, "corona": 21887, "shutter": 28180, "sweat": 7518, "##fo": 14876, "consultancy": 24853, "greta": 26111, "cactus": 23265, "dodgers": 13391, "var": 13075, "straight": 3442, "eric": 4388, "marched": 9847, "carpet": 10135, "##si": 5332, "thru": 27046, "##ej": 20518, "walden": 24834, "counselor": 17220, "unconstitutional": 20454, "1772": 17483, "gabriel": 6127, "myles": 27056, "dynamics": 10949, "bedroom": 5010, "##van": 6212, "delight": 12208, "currently": 2747, "restraints": 28054, "##\u00b0": 7737, "hesse": 16399, "##\u3057": 30183, "passenger": 4628, "repair": 7192, "##\u0628\u0627\u062f": 25799, "gov": 18079, "ballroom": 14307, "stefan": 8852, "fremont": 22550, "\u4ee3": 1760, "##oso": 19137, "##tory": 7062, "sumo": 28193, "##eers": 22862, "par": 11968, "malmo": 23643, "dollar": 7922, "millionaire": 19965, "##ator": 8844, "doorway": 7086, "sir": 2909, "harmonic": 19452, "effortlessly": 29483, "swayed": 20122, "bedrooms": 18390, "ja": 14855, "sleeves": 15114, "commissioner": 5849, "##phs": 18757, "tiles": 13262, "##vance": 21789, "prasad": 17476, "\u0562": 1220, "respects": 17475, "accommodate": 8752, "69": 6353, "phd": 8065, "fined": 16981, "constantin": 27991, "adored": 28456, "##mity": 16383, "jelly": 20919, "syntax": 20231, "split": 3975, "##01": 24096, "boon": 23264, "##udeau": 27627, "jewish": 3644, "wild": 3748, "marsden": 29558, "dartmouth": 16960, "participate": 5589, "##cum": 24894, "en": 4372, "[unused272]": 277, "instant": 7107, "sectors": 11105, "hunan": 27374, "dollars": 6363, "fauna": 15018, "sperm": 18047, "##ragan": 28905, "christmas": 4234, "noctuidae": 24893, "supplementary": 26215, "advocated": 11886, "cloud": 6112, "##sta": 9153, "1911": 5184, "scranton": 26123, "##unciation": 24101, "##sor": 21748, "1731": 28446, "##rana": 16737, "##\u8ecd": 30481, "goofy": 27243, "findings": 9556, "markings": 13967, "reunited": 11653, "##erved": 25944, "boxed": 27554, "##ieg": 28872, "supplied": 8127, "countless": 14518, "toppled": 27251, "barking": 19372, "##aves": 21055, "editions": 6572, "##eum": 14820, "##cz": 27966, "guinea": 7102, "##flower": 14156, "jamaican": 17851, "newell": 28052, "1600": 14883, "estimate": 10197, "[unused686]": 691, "pry": 29198, "##mia": 10092, "fastest": 7915, "tom": 3419, "kaladin": 22588, "[unused648]": 653, "tools": 5906, "##try": 11129, "instance": 6013, "schizophrenia": 23683, "fires": 8769, "suv": 15620, "##cks": 10603, "confessed": 14312, "accusation": 19238, "##car": 10010, "41st": 24233, "shouldn": 5807, "##hard": 11783, "highlighting": 20655, "mi": 2771, "vocabulary": 16188, "drafting": 21168, "dignity": 13372, "prejudice": 18024, "varieties": 9903, "tierney": 26198, "boil": 26077, "defect": 21262, "allen": 5297, "free": 2489, "##lated": 13776, "tokyo": 5522, "1953": 4052, "trinidad": 11856, "mice": 12328, "redeveloped": 28053, "interstate": 7553, "titans": 13785, "##\u043c": 29745, "considered": 2641, "lighting": 7497, "train": 3345, "##ece": 26005, "##onic": 12356, "##aus": 20559, "\u0565": 1223, "measurement": 10903, "carter": 5708, "1965": 3551, "postmaster": 20707, "membrane": 10804, "random": 6721, "granted": 4379, "ruining": 27853, "belonged": 6272, "comment": 7615, "##rations": 28893, "gestures": 18327, "gunfire": 16978, "calves": 28023, "beaux": 20290, "holiday": 6209, "oldham": 18285, "##\u0565": 29770, "[unused489]": 494, "shone": 14707, "partridge": 26079, "spurred": 22464, "[unused31]": 32, "sai": 18952, "volcano": 12779, "downloads": 22956, "passports": 19494, "shit": 4485, "##uil": 19231, "president": 2343, "glacial": 17381, "stopping": 7458, "alaska": 7397, "##ocating": 27483, "##wind": 11101, "luton": 17807, "##\u5149": 30296, "##\u0291": 29703, "runaway": 19050, "##90": 21057, "brig": 16908, "crowd": 4306, "platforms": 7248, "dwell": 23120, "computation": 22334, "consensus": 10465, "german": 2446, "##pel": 11880, "pumpkin": 25730, "questioned": 8781, "earthquakes": 17932, "clary": 13145, "arising": 17707, "##get": 18150, "130": 7558, "fox": 4419, "1783": 15331, "upgrading": 25925, "capable": 5214, "claiming": 6815, "majesty": 9995, "jesuits": 20297, "noises": 14950, "hansen": 13328, "1801": 12410, "honour": 6225, "saudi": 8174, "han": 7658, "deposits": 10042, "structurally": 29060, "##rel": 16570, "[unused10]": 11, "soaring": 23990, "ying": 20879, "drowning": 14759, "##wing": 9328, "[unused429]": 434, "##foil": 24323, "[unused448]": 453, "transparency": 16987, "reorganisation": 24934, "groningen": 29070, "1656": 28434, "matthew": 5487, "aramaic": 28934, "47": 4700, "stevens": 8799, "\u524d": 1776, "alberto": 12007, "med": 19960, "kits": 18628, "workout": 27090, "##odle": 26156, "rotten": 11083, "brighter": 16176, "mainstream": 7731, "nirvana": 26530, "eight": 2809, "bros": 10243, "swords": 10689, "##dia": 9032, "exaggerated": 16903, "tape": 6823, "decent": 11519, "07": 5718, "anonymous": 10812, "noun": 15156, "##\u0576": 29778, "implemented": 7528, "signed": 2772, "\u4e45": 1748, "thus": 2947, "touch": 3543, "lacrosse": 13488, "male": 3287, "baylor": 23950, "##ication": 21261, "hairs": 13606, "nadia": 14942, "accommodated": 28959, "bangladesh": 7269, "encompassed": 24058, "speech": 4613, "59": 5354, "##\u516c": 30298, "prop": 17678, "##cchi": 25955, "emissions": 11768, "interviews": 7636, "concentrations": 14061, "simplified": 11038, "dirty": 6530, "histories": 15215, "restored": 5854, "bengali": 11267, "artery": 16749, "taught": 4036, "understood": 5319, "##6": 2575, "##av": 11431, "encouraged": 6628, "vulnerability": 18130, "opined": 26084, "hudson": 6842, "ranking": 5464, "purpose": 3800, "nods": 11232, "siemens": 22108, "kneeling": 16916, "hal": 11085, "fordham": 27302, "alex": 4074, "bribery": 27748, "[unused42]": 43, "##cer": 17119, "evaluation": 9312, "una": 14477, "##arney": 25831, "previous": 3025, "bhutan": 18768, "space": 2686, "punk": 7196, "##cute": 26869, "joseph": 3312, "curated": 17940, "tar": 16985, "brennan": 13962, "##thor": 27844, "berger": 16758, "knocking": 10591, "transmit": 19818, "autonomous": 8392, "opted": 12132, "##\u5289": 30303, "mate": 6775, "[unused357]": 362, "reuters": 26665, "masovian": 23703, "\u624b": 1858, "donna": 10972, "tangled": 14170, "pinched": 18521, "added": 2794, "land": 2455, "296": 27200, "fractured": 21726, "ios": 16380, "samantha": 11415, "cod": 19429, "chin": 5413, "##bane": 27543, "insist": 18292, "##lly": 9215, "antigen": 28873, "cloak": 11965, "##drome": 29171, "ministries": 16410, "panda": 25462, "opposing": 10078, "negotiated": 13630, "detectors": 25971, "gliding": 20292, "bayer": 26367, "[unused712]": 717, "##hiko": 22204, "ghanaian": 27202, "norman": 5879, "##ulent": 27581, "filtering": 22910, "leicester": 11258, "commons": 7674, "gunnar": 26138, "transverse": 18323, "fastened": 24009, "293": 26953, "##\u203a": 30068, "transmitter": 11659, "geographic": 9183, "\u65b9": 1863, "parkinson": 20310, "devoted": 7422, "sought": 4912, "##eche": 27635, "##hd": 14945, "##pop": 16340, "marge": 25532, "max": 4098, "pieces": 4109, "[unused926]": 931, "budgets": 26178, "defend": 6985, "##see": 19763, "##\u21a6": 30116, "streak": 9039, "##ythe": 26688, "annoyance": 17466, "basket": 10810, "portal": 9445, "\u301c": 1645, "kinase": 21903, "\u30af": 1702, "psi": 17816, "reactivated": 28577, "\u2096": 1565, "evolutionary": 12761, "##poulos": 24662, "nero": 19212, "brett": 12049, "wiggled": 26750, "bacterium": 24024, "curly": 17546, "salesman": 18968, "bolt": 10053, "##walk": 17122, "privileges": 14310, "luciano": 24512, "garland": 17017, "##verance": 21998, "specialist": 8325, "[unused293]": 298, "##ils": 12146, "eastbound": 24773, "subjected": 13532, "kashmir": 13329, "purge": 24694, "mix": 4666, "##plication": 21557, "drafts": 28967, "demetrius": 28367, "bowed": 11489, "050": 28714, "jogging": 28233, "narrative": 7984, "jul": 21650, "cho": 16480, "neutrality": 21083, "conflicting": 19326, "[unused466]": 471, "acquaintances": 29409, "\u0935": 1335, "coats": 15695, "lens": 10014, "explaining": 9990, "116": 12904, "reborn": 24910, "freaks": 29526, "1780": 15051, "heartbreak": 27724, "jett": 22962, "ukraine": 5924, "drunken": 15967, "rao": 10546, "realities": 22213, "extinction": 14446, "\u0906": 1312, "seeded": 13916, "striking": 8478, "memorial": 3986, "experienced": 5281, "shove": 14738, "##tted": 16190, "minneapolis": 11334, "lordship": 20698, "accepting": 10564, "ignoring": 9217, "spoil": 27594, "cheng": 15898, "##ron": 4948, "sensation": 8742, "\u65b0": 1862, "someday": 13834, "dear": 6203, "follow": 3582, "identical": 7235, "##zh": 27922, "lying": 4688, "whitney": 9809, "##rai": 14995, "style": 2806, "bwf": 21215, "[unused574]": 579, "salisbury": 13817, "bangladeshi": 24267, "##ala": 7911, "sore": 14699, "downhill": 19448, "##urity": 25137, "manifest": 19676, "confined": 12302, "derek": 7256, "##paper": 23298, "scheme": 5679, "waved": 7147, "245": 21005, "keane": 27228, "##tility": 18724, "dubbed": 9188, "[unused948]": 953, "insider": 25297, "dreadful": 21794, "finnish": 6983, "connect": 7532, "roared": 14242, "##jee": 16963, "\u028e": 1135, "tamil": 6008, "gauge": 7633, "orchid": 15573, "garfield": 20170, "jumped": 5598, "they": 2027, "##\u0629": 19433, "[unused839]": 844, "soloist": 16504, "##sque": 17729, "##\u308d": 30215, "balancing": 20120, "##slin": 22908, "breakout": 25129, "120": 6036, "\u9593": 1969, "330": 14210, "exhaust": 15095, "fringe": 13548, "ghostly": 24407, "clubhouse": 22067, "tina": 11958, "##fs": 10343, "union": 2586, "boardwalk": 29496, "##uts": 16446, "consuming": 15077, "joked": 19700, "bunny": 16291, "##sily": 26863, "discarded": 15105, "[unused575]": 580, "sunni": 18883, "\u0baa": 1388, "boeing": 10321, "##spar": 27694, "##law": 14919, "prefer": 9544, "\u98a8": 1977, "incorrect": 16542, "corridors": 17506, "assessment": 7667, "bella": 12101, "##bib": 28065, "eli": 12005, "regulating": 21575, "feudal": 16708, "baptist": 7550, "157": 17403, "\u9762": 1976, "##df": 20952, "creativity": 14842, "##a": 2050, "quartz": 20971, "##ment": 3672, "prime": 3539, "linger": 26577, "##\u1107": 29996, "computing": 9798, "signal": 4742, "\u2099": 1568, "solve": 9611, "transportation": 5193, "thoroughbred": 18359, "##no": 3630, "designated": 4351, "tap": 11112, "agents": 6074, "threats": 8767, "[unused578]": 583, "rivals": 9169, "businessmen": 17353, "audrey": 14166, "discretion": 19258, "frenchman": 26529, "albanians": 25267, "5th": 4833, "##cke": 19869, "achievements": 10106, "##rien": 23144, "##id": 3593, "nottinghamshire": 20126, "devin": 23601, "##ricted": 20623, "##bro": 12618, "##ttering": 19567, "amount": 3815, "1830s": 20400, "companion": 7452, "mammals": 11993, "forearm": 16148, "##rice": 17599, "ya": 8038, "##aar": 26526, "##nessy": 25441, "sulfur": 17864, "##ull": 18083, "plaque": 11952, "intellectual": 7789, "learned": 4342, "cecilia": 18459, "burt": 18611, "[unused757]": 762, "roberto": 10704, "##ays": 22916, "activist": 7423, "napkin": 20619, "pantheon": 24152, "##\u7687": 30443, "butterfly": 9112, "canberra": 13107, "pearl": 7247, "reuben": 17294, "unleashed": 22416, "trembling": 10226, "\u201d": 1524, "prc": 26141, "devil": 6548, "dotted": 20384, "##chemical": 15869, "owl": 13547, "fei": 24664, "macedonia": 11492, "##oro": 14604, "kerala": 8935, "premio": 23031, "wessex": 27886, "laboratories": 12030, "jihad": 24815, "isis": 18301, "##entation": 19304, "percentage": 7017, "secession": 22965, "pious": 25020, "systemic": 22575, "\u8033": 1937, "scholarships": 15691, "##plate": 15725, "jacket": 6598, "attic": 14832, "187": 19446, "ballads": 18456, "cinematography": 16434, "transports": 19003, "kannada": 13873, "branch": 3589, "mormon": 15111, "belgrade": 10291, "windy": 27370, "harry": 4302, "roughly": 5560, "##\u9577": 30493, "##cie": 23402, "moldova": 16772, "rocket": 7596, "cunning": 23626, "##lta": 24458, "marginal": 14785, "juan": 5348, "##lm": 13728, "kindness": 16056, "aboriginal": 9757, "protesters": 13337, "accent": 9669, "dennis": 6877, "resistance": 5012, "qin": 19781, "##\u4e09": 30267, "positioning": 19120, "pioneered": 16193, "##zak": 20685, "##olved": 16116, "regular": 3180, "multinational": 20584, "hartman": 26766, "##rini": 22612, "adventures": 7357, "##ino": 5740, "hendricks": 28895, "public": 2270, "autumn": 7114, "believer": 24591, "veterinary": 15651, "##\u00fe": 29670, "##ile": 9463, "threatening": 8701, "##\u6b66": 30415, "##nally": 26827, "uae": 17641, "##chet": 20318, "ms": 5796, "##chal": 18598, "salt": 5474, "flushing": 23519, "hagen": 24047, "sharks": 12004, "germany": 2762, "automobile": 9935, "[unused281]": 286, "302": 22060, "\u5149": 1770, "ride": 4536, "aa": 9779, "corrosion": 24625, "della": 8611, "191": 19871, "traitor": 17328, "tn": 28286, "errors": 10697, "strata": 22913, "[unused430]": 435, "note": 3602, "rookie": 8305, "filmfare": 25648, "fascination": 18987, "united": 2142, "##lie": 8751, "pneumonia": 18583, "neck": 3300, "lloyd": 6746, "mathematician": 13235, "shiver": 13277, "enclave": 25867, "sheridan": 13243, "everywhere": 7249, "territorial": 7894, "##suit": 28880, "asshole": 22052, "concentrated": 8279, "##rator": 16259, "strings": 7817, "sole": 7082, "eligible": 7792, "heading": 5825, "\u305b": 1659, "cup": 2452, "##anum": 27975, "translations": 11913, "cartridges": 22998, "sighing": 19381, "mil": 23689, "investing": 19920, "blew": 8682, "lie": 4682, "lahore": 15036, "##etz": 26327, "trail": 4446, "tim": 5199, "##sa": 3736, "burnt": 11060, "urged": 9720, "##zie": 14272, "separating": 14443, "stan": 9761, "leadership": 4105, "depart": 18280, "##arding": 29154, "figurative": 29407, "manage": 6133, "detained": 14620, "rigid": 11841, "auf": 21200, "##olin": 18861, "collaborative": 12317, "cox": 9574, "##wn": 7962, "sioux": 16615, "100th": 16919, "communicated": 24162, "intense": 6387, "##zio": 12426, "aachen": 29093, "##isance": 28138, "fired": 5045, "##ania": 13241, "appeared": 2596, "vila": 23840, "freezing": 12809, "1781": 16788, "reset": 25141, "turner": 6769, "wholly": 12590, "supernatural": 11189, "tank": 4951, "smirk": 15081, "raise": 5333, "superb": 21688, "sane": 22856, "acronym": 20137, "fallout": 23902, "##gna": 16989, "wines": 14746, "bulldog": 28628, "credible": 23411, "threads": 16457, "##vet": 19510, "cyrus": 16123, "bergen": 12674, "natural": 3019, "oro": 20298, "footballers": 27784, "adobe": 18106, "outlet": 13307, "linnaeus": 21610, "retaining": 12823, "obedience": 22645, "##mut": 28120, "appropriate": 6413, "gunner": 14850, "onwards": 9921, "dorsey": 27332, "lisa": 7059, "angular": 16108, "revolt": 10073, "billed": 14843, "erotic": 14253, "ugly": 9200, "nba": 6452, "restroom": 28249, "traits": 12955, "coincidentally": 27542, "spd": 23772, "stil": 25931, "arrondissement": 20522, "estranged": 24211, "[unused613]": 618, "##atz": 20501, "frog": 10729, "publicly": 7271, "##rium": 18802, "hammond": 11309, "##placed": 22829, "salvation": 12611, "##ulla": 22187, "scratching": 20291, "capsule": 18269, "genevieve": 20245, "husky": 18758, "pp": 4903, "kent": 5982, "witnesses": 9390, "combine": 11506, "tracy": 10555, "tavern": 13090, "##zai": 25290, "fought": 4061, "hon": 10189, "alternating": 15122, "[unused563]": 568, "juice": 10869, "[unused324]": 329, "recognizable": 20123, "cloudy": 24706, "offenders": 19591, "nintendo": 10022, "barns": 25684, "waterloo": 13784, "olson": 21583, "loves": 7459, "psychologist": 15034, "[unused27]": 28, "immigrants": 7489, "mozambique": 16274, "abandoning": 19816, "##*": 29621, "je": 15333, "planner": 24555, "mid": 3054, "abdomen": 13878, "addict": 26855, "joker": 19318, "inherit": 22490, "##rso": 25301, "owned": 3079, "namesake": 17283, "advertisement": 15147, "revised": 8001, "heaved": 19970, "germanic": 15139, "\u798f": 1926, "unanimously": 15645, "##bant": 29604, "##\u00a4": 29647, "reworked": 27575, "disaster": 7071, "harp": 14601, "strangled": 21384, "##due": 20041, "##\u6e05": 30429, "vocalists": 27478, "harbor": 6496, "hodgson": 26107, "exceeded": 14872, "somethin": 27941, "groceries": 26298, "[unused804]": 809, "patrol": 6477, "radicals": 23618, "developed": 2764, "\u0baf": 1390, "##ored": 19574, "named": 2315, "exam": 11360, "##yce": 29297, "##cede": 22119, "millie": 19561, "carnage": 27450, "blonde": 9081, "[unused750]": 755, "correspondence": 11061, "##quel": 22197, "drowned": 12805, "\u6c5f": 1897, "c": 1039, "eroded": 23300, "dissolved": 8314, "bitten": 19026, "thrive": 25220, "rees": 22131, "differences": 5966, "rifles": 9494, "##\u057e": 29782, "earl": 4656, "##bbed": 15499, "delayed": 8394, "[unused838]": 843, "tiled": 26510, "libby": 19533, "reception": 7684, "bari": 22466, "978": 4891, "lac": 18749, "boomed": 28908, "unwilling": 15175, "vines": 16702, "##dez": 24601, "##chaft": 29043, "encompassing": 19129, "##tos": 13122, "salford": 23001, "##sir": 29481, "##fc": 11329, "increasing": 4852, "sure": 2469, "##night": 15864, "champagne": 12327, "spy": 8645, "[unused362]": 367, "contrasting": 22133, "pictures": 4620, "weightlifting": 29305, "oddly": 15056, "##\u2502": 30143, "erich": 17513, "[unused446]": 451, "amanda": 8282, "petroleum": 11540, "manifold": 19726, "melbourne": 4940, "quan": 24110, "##eson": 21421, "forefront": 22870, "explorers": 19264, "balls": 7395, "113": 12104, "##\u53f2": 30316, "professions": 22797, "##ographic": 13705, "chorus": 7165, "edible": 21006, "defending": 6984, "interrupting": 22602, "whoever": 9444, "bypassed": 27539, "life": 2166, "seasons": 3692, "schwarz": 29058, "##pping": 14853, "blasted": 18461, "packaged": 21972, "ortega": 25859, "krakow": 14576, "beaver": 13570, "##isa": 14268, "meyer": 11527, "harness": 17445, "##gnan": 28207, "##vius": 26055, "[unused418]": 423, "director": 2472, "choir": 6596, "calculate": 18422, "[unused456]": 461, "[unused245]": 250, "mastering": 11495, "posing": 20540, "decorate": 29460, "weston": 12755, "any": 2151, "timeless": 27768, "freeman": 11462, "julius": 10396, "##in": 2378, "blended": 19803, "shah": 7890, "theological": 9208, "121": 12606, "1843": 10075, "synonym": 10675, "surfing": 19967, "##jos": 19929, "hesitantly": 24626, "##sters": 15608, "trolley": 20820, "authentic": 14469, "strolled": 20354, "padres": 21577, "ravi": 16806, "##bat": 14479, "awesome": 12476, "##ka": 2912, "policy": 3343, "trickle": 26027, "embodied": 25405, "delegate": 11849, "invitation": 8468, "appalachian": 19682, "sits": 7719, "henley": 20768, "dubois": 26258, "spa": 12403, "[unused851]": 856, "aired": 4836, "##\u11b8": 30024, "output": 6434, "henrietta": 20775, "\u72ac": 1908, "android": 11924, "pounds": 7038, "reminding": 15906, "fitting": 11414, "format": 4289, "\u092a": 1328, "hallways": 28274, "spike": 9997, "memorandum": 20336, "disciplined": 28675, "census": 2883, "##istles": 28738, "##\uff0d": 30516, "##\u3093": 30217, "cellar": 15423, "meditation": 13804, "rfc": 14645, "vince": 12159, "boom": 8797, "##\u5929": 30337, "quotes": 16614, "harvesting": 21534, "argument": 6685, "catchment": 22865, "drummond": 19266, "rash": 23438, "methods": 4725, "conventions": 12472, "mandolin": 17687, "\u2032": 1531, "lausanne": 22256, "wear": 4929, "flawless": 27503, "##\u028c": 29700, "explicit": 13216, "watering": 25813, "seen": 2464, "fray": 25975, "unpaid": 23850, "howell": 18473, "21st": 7398, "anywhere": 5973, "##hore": 16892, "297": 27502, "##peed": 25599, "gomez": 12791, "##set": 13462, "alf": 24493, "##athi": 25457, "hunts": 28526, "amp": 23713, "bowing": 26690, "##watch": 18866, "suppression": 16341, "\u0e19": 1413, "##right": 15950, "[unused407]": 412, "solidarity": 14657, "coefficients": 21374, "raids": 11217, "hewitt": 19482, "liner": 11197, "declan": 16494, "##rization": 26910, "johann": 8968, "##bber": 29325, "##dder": 20791, "jagged": 18187, "##krishna": 23017, "##13": 17134, "dismissed": 7219, "\u060c": 1268, "wondered": 4999, "grille": 26192, "##\u3082": 30207, "exercise": 6912, "mara": 13955, "wolves": 8588, "##nath": 16207, "arroyo": 23882, "[unused8]": 9, "digest": 17886, "prehistoric": 14491, "nikola": 24794, "loosen": 29476, "[unused745]": 750, "facilitate": 10956, "cavalier": 28778, "failure": 4945, "##\u043e\u0432\u0438\u0447": 16198, "##\u8857": 30472, "check": 4638, "scotch": 18937, "##wide": 22517, "suitcase": 15940, "##water": 5880, "stagecoach": 26025, "##\u2194": 30115, "radiating": 23229, "[unused509]": 514, "protection": 3860, "forgot": 9471, "ida": 16096, "sable": 23492, "circle": 4418, "##ede": 14728, "judaism": 13725, "raced": 8255, "nights": 6385, "enhancement": 22415, "environment": 4044, "persecution": 14522, "rendezvous": 20558, "ripping": 17039, "sired": 26940, "engines": 5209, "dorian": 16092, "xu": 15990, "javier": 13824, "aggregator": 24089, "profiles": 17879, "alexa": 24969, "1709": 28955, "motivated": 12774, "##gence": 17905, "##eet": 15558, "##thesis": 25078, "typically": 4050, "paralympics": 15600, "tuberculosis": 15877, "robb": 26211, "faust": 24021, "##dates": 27122, "##\u30c3": 30237, "fantasy": 5913, "proves": 16481, "upgraded": 9725, "##hri": 26378, "vidhan": 28590, "freedom": 4071, "##nay": 16741, "albuquerque": 19334, "wherever": 11210, "algebraic": 17390, "##gar": 6843, "anders": 15387, "fluorescent": 22184, "governor": 3099, "triggering": 29170, "##bos": 15853, "serpent": 16517, "lucivar": 21401, "report": 3189, "vinci": 23765, "lyrics": 4581, "heroism": 27117, "gin": 18353, "scout": 7464, "elton": 19127, "towards": 2875, "480": 17295, "##chev": 16179, "[unused82]": 83, "trams": 19216, "merging": 16468, "##esian": 25253, "villiers": 25333, "\u5289": 1777, "##\u09bf": 29915, "##\u5e7f": 30368, "weights": 15871, "alterations": 16705, "elements": 3787, "wine": 4511, "sites": 4573, "structural": 8332, "pas": 14674, "detonated": 28110, "spat": 14690, "skipping": 25978, "modernized": 27140, "kettle": 22421, "teens": 13496, "##backs": 12221, "rockies": 22366, "amplitude": 22261, "turmoil": 17930, "dept": 29466, "lecturer": 9162, "magnate": 27470, "master": 3040, "faso": 22773, "inaccurate": 24949, "divine": 7746, "##48": 18139, "copy": 6100, "caesar": 11604, "temporarily": 8184, "webster": 11635, "##\u0f0b": 29960, "required": 3223, "lara": 13679, "##ations": 10708, "174": 19492, "10th": 6049, "included": 2443, "[unused536]": 541, "considerably": 9839, "##ling": 2989, "spine": 8560, "6": 1020, "wallet": 15882, "\u02e3": 1153, "cl": 18856, "knees": 5042, "reelection": 17648, "interventions": 19388, "pistons": 24399, "casket": 25864, "\u21cc": 1590, "1624": 28531, "lana": 16554, "hostel": 21071, "rosemary": 18040, "##ped": 5669, "eyes": 2159, "singled": 25369, "##lings": 11227, "##sd": 16150, "stops": 6762, "cop": 8872, "eyed": 7168, "thai": 7273, "chesapeake": 20867, "dreams": 5544, "whilst": 5819, "sync": 26351, "characters": 3494, "corporal": 14265, "levels": 3798, "motioned": 13054, "660": 20982, "bao": 25945, "brunette": 27261, "about": 2055, "hormone": 18714, "##rden": 18246, "##aux": 13754, "wired": 17502, "sichuan": 20980, "nationals": 10342, "##mal": 9067, "##iers": 10136, "##ph": 8458, "prowess": 26120, "learning": 4083, "\u5cf6": 1833, "\u300c": 1641, "exits": 16639, "[unused6]": 7, "drink": 4392, "vivian": 13801, "petrol": 17141, "improving": 9229, "lonely": 9479, "char": 25869, "dismantled": 17293, "##els": 9050, "##vers": 14028, "kill": 3102, "##mi": 4328, "landing": 4899, "refueling": 23026, "hike": 21857, "harrington": 19760, "types": 4127, "##et": 3388, "aires": 9149, "mari": 16266, "areas": 2752, "ron": 6902, "##folk": 29284, "haiti": 12867, "##ounded": 26240, "##dition": 20562, "cruises": 23986, "jam": 9389, "[unused571]": 576, "sacked": 14159, "##arns": 23549, "townsville": 27492, "footing": 22849, "##\u5fc4": 30376, "chevy": 29009, "70s": 17549, "medicinal": 20632, "burkina": 23089, "unharmed": 28150, "##\u671d": 30400, "##eyer": 20211, "nowadays": 13367, "hopefully": 11504, "\u0446": 1201, "delivered": 5359, "chuckles": 26088, "##iser": 17288, "paris": 3000, "86": 6564, "jaya": 24120, "pleading": 16418, "petra": 20953, "michigan": 4174, "flowing": 8577, "recognize": 6807, "##efe": 27235, "##nel": 11877, "fleets": 25515, "equality": 9945, "schneider": 15159, "morning": 2851, "appeal": 5574, "localized": 22574, "patsy": 25382, "eccentric": 18080, "trois": 25527, "donegal": 25415, "amber": 8994, "##tz": 5753, "emmanuel": 14459, "cylinders": 18729, "mercedes": 10793, "salazar": 25315, "massage": 21881, "cheating": 16789, "newbury": 29457, "##\u0937": 29873, "brightness": 18295, "##gc": 18195, "bop": 29432, "conquer": 16152, "roderick": 28326, "straps": 19702, "blindly": 25734, "##yde": 18124, "culminating": 16979, "##\u09b0": 29908, "##fest": 14081, "elegance": 27745, "##eh": 11106, "celebration": 7401, "tracked": 12808, "elemental": 19529, "township": 3545, "tainted": 26392, "couldn": 2481, "expedition": 5590, "swallowed": 7351, "amend": 27950, "spirits": 8633, "[unused738]": 743, "electors": 19165, "sergei": 14543, "participant": 13180, "draught": 25349, "##\u0e40": 29959, "##orous": 25373, "##\u304d": 30178, "contract": 3206, "educate": 16957, "burrows": 22009, "##iva": 11444, "byu": 23471, "mild": 10256, "succession": 8338, "babu": 20948, "centimeters": 18119, "higgins": 13466, "profoundly": 28089, "carriages": 17744, "vfl": 13480, "burnett": 13829, "forum": 7057, "##ential": 24271, "sierra": 7838, "extensions": 14305, "##\u03c1": 29732, "##ible": 7028, "carly": 18431, "loaned": 13190, "welles": 23447, "succeeds": 21645, "destruction": 6215, "le": 3393, "diplomacy": 17610, "##bach": 7693, "attends": 23933, "mirror": 5259, "##hur": 24572, "gunshot": 22077, "yao": 23711, "panties": 12095, "##uation": 14505, "mutual": 8203, "undertook": 12543, "debbie": 16391, "fascinated": 15677, "madras": 12993, "##roy": 13238, "diagnosis": 11616, "shattered": 10909, "leaned": 4016, "moroccan": 17494, "hogan": 14851, "9th": 6280, "[unused900]": 905, "garden": 3871, "tel": 10093, "breach": 12510, "miocene": 26926, "[unused539]": 544, "seductive": 23182, "bf": 28939, "shipments": 24636, "inaccessible": 29104, "glint": 25263, "\u2090": 1560, "moe": 22078, "##fide": 20740, "ur": 24471, "relating": 8800, "##teacher": 24741, "asturias": 26798, "variability": 28436, "passes": 5235, "cameo": 12081, "\u76ee": 1918, "##nob": 25083, "anxious": 11480, "leaps": 29195, "morgan": 5253, "##chai": 24925, "communities": 4279, "search": 3945, "rubbing": 10137, "sadness": 12039, "versatile": 22979, "##sy": 6508, "hugh": 6621, "##dened": 24589, "warped": 25618, "assassinate": 25683, "##ters": 7747, "bamboo": 15216, "[unused384]": 389, "invertebrates": 25700, "dem": 17183, "188": 19121, "kun": 28919, "brings": 7545, "##lewood": 26580, "humboldt": 19249, "champion": 3410, "\u3055": 1656, "redistribution": 25707, "tripped": 21129, "blair": 10503, "\u045b": 1217, "mast": 15429, "absence": 6438, "\u30f3": 1737, "conjunction": 9595, "##urer": 27595, "##rest": 28533, "##lais": 28704, "horatio": 27752, "ticket": 7281, "cambrian": 29228, "escorted": 13127, "[unused784]": 789, "story": 2466, "40th": 16541, "perpetrators": 27675, "cub": 21987, "[": 1031, "page": 3931, "dough": 23126, "##uj": 23049, "apologetic": 29352, "##nik": 8238, "##\u22c5": 30141, "##sport": 20205, "iced": 28248, "bucks": 14189, "aspen": 18567, "fridge": 16716, "steps": 4084, "sigh": 6682, "synthesis": 10752, "convicted": 7979, "clouded": 26761, "longtime": 11155, "mcgrath": 23220, "nothin": 24218, "3a": 23842, "##\u22121": 27944, "miner": 18594, "##ann": 11639, "##uber": 21436, "##pala": 19636, "oracle": 14721, "##eric": 22420, "offense": 10048, "\u099b": 1357, "instructions": 8128, "\u03b2": 1156, "1826": 11931, "born": 2141, "captives": 21496, "system": 2291, "1989": 2960, "republished": 24476, "##ffer": 12494, "exposition": 13080, "pigment": 28815, "decorative": 11584, "tuba": 29242, "termed": 12061, "thessaloniki": 23162, "jillian": 27286, "disorders": 10840, "[unused277]": 282, "##mics": 22924, "bouncing": 16361, "ironic": 19313, "gilded": 23880, "knotted": 27039, "joints": 17651, "moods": 27824, "proudly": 18067, "hurts": 13403, "##marine": 21966, "##ntation": 23436, "192": 17613, "guantanamo": 23094, "ported": 27650, "flare": 17748, "capcom": 26861, "richmond": 6713, "\u2097": 1566, "bytes": 27507, "tactic": 19717, "magnificent": 12047, "sox": 9175, "bologna": 14102, "##rde": 25547, "##te": 2618, "sturdy": 23073, "penguin": 13987, "##cion": 10446, "fritz": 12880, "fished": 26281, "mata": 22640, "guides": 12468, "stormy": 24166, "fitz": 27706, "volatile": 20606, "nipple": 14298, "disk": 9785, "grandparents": 14472, "izzy": 16699, "##say": 24322, "wolfe": 14212, "##kumar": 18494, "\u56d7": 1797, "towels": 24213, "briefly": 4780, "proportions": 19173, "oversee": 17467, "kam": 27829, "launcher": 22742, "nice": 3835, "##opped": 27288, "##am": 3286, "ghent": 24202, "keyboards": 6269, "[unused764]": 769, "conferences": 9281, "##zer": 6290, "frantic": 15762, "philippine": 7802, "silent": 4333, "ashton": 13772, "wits": 25433, "relinquished": 26566, "contains": 3397, "catalina": 22326, "crops": 8765, "##\u00b7": 29661, "temeraire": 23611, "toxin": 29090, "automatically": 8073, "trials": 7012, "[unused709]": 714, "snarl": 24845, "\u221e": 1601, "begged": 12999, "possibly": 4298, "fuss": 28554, "tibetan": 11953, "tunnels": 10633, "blogs": 23012, "relegation": 9591, "siberia": 16881, "alt": 12456, "##rries": 26801, "##list": 9863, "retrospective": 15354, "foyer": 16683, "revolver": 17863, "foods": 9440, "trend": 9874, "monitor": 8080, "beforehand": 25828, "quantities": 12450, "romans": 10900, "realization": 12393, "ui": 21318, "maryland": 5374, "##riam": 25557, "groan": 13001, "sensitive": 7591, "decimal": 26066, "##eo": 8780, "arenas": 26434, "##rrigan": 28706, "congress": 3519, "trough": 23389, "\u09a6": 1364, "##ces": 9623, "##cut": 12690, "trigger": 9495, "##rum": 6824, "##\u09a8": 29902, "searing": 25764, "catholicism": 16138, "garrison": 8427, "##\u963f": 30497, "tread": 29449, "restraining": 28285, "algiers": 22947, "##para": 28689, "resulting": 4525, "drove": 5225, "##kon": 19648, "radiation": 8249, "clerks": 26706, "hays": 29051, "mathematical": 8045, "##ignant": 25593, "reassure": 24647, "karate": 16894, "stupidity": 28072, "hawaiian": 12188, "yankees": 11081, "pubs": 23598, "camden": 13267, "tucker": 9802, "sci": 16596, "attitudes": 13818, "##\u5dff": 30363, "midtown": 27219, "binding": 8031, "famous": 3297, "volume": 3872, "douglas": 5203, "##ry": 2854, "comes": 3310, "[unused624]": 629, "##mm": 7382, "iconic": 14430, "designer": 5859, "dwyer": 29394, "gesture": 9218, "rocks": 5749, "differential": 11658, "##bino": 21891, "760": 24643, "##ient": 11638, "finding": 4531, "##pc": 15042, "preparation": 7547, "misses": 22182, "132": 14078, "pupil": 11136, "noses": 27518, "mba": 15038, "##\u306f": 30198, "04": 5840, "filthy": 18294, "405": 23988, "independents": 23756, "kosovo": 11491, "brands": 9639, "coefficient": 19064, "maybe": 2672, "[unused562]": 567, "laying": 10201, "1974": 3326, "##lb": 20850, "wizards": 16657, "##\u027e": 29692, "successive": 11165, "meeting": 3116, "col": 8902, "dictator": 21237, "turkish": 5037, "airport": 3199, "jin": 9743, "poking": 21603, "##pie": 14756, "rats": 11432, "frogs": 17582, "##\u056f": 29774, "1954": 4051, "bone": 5923, "mabel": 19486, "\u8ecd": 1955, "[unused115]": 120, "luftwaffe": 17740, "exiting": 22371, "##von": 17789, "##\u00a5": 29648, "pixels": 27725, "budget": 5166, "1913": 5124, "24": 2484, "extant": 12905, "notre": 10289, "experimentation": 21470, "wade": 10653, "##olio": 29401, "yarmouth": 28792, "sousa": 28535, "##dson": 25112, "virtue": 11870, "jew": 16522, "tenor": 9534, "326": 28188, "secretaries": 23660, "relatives": 9064, "11th": 6252, "dealing": 7149, "programming": 4730, "sensual": 18753, "##flict": 29301, "instructed": 10290, "cover": 3104, "##abe": 16336, "pontifical": 22362, "hooked": 13322, "telenovela": 25754, "##ump": 24237, "voluntarily": 17912, "louisville": 11577, "##\u2021": 30062, "differentiated": 24374, "mongolian": 17855, "##cene": 17968, "knelt": 12804, "clemens": 27277, "##rrier": 27051, "299": 25926, "##nch": 12680, "dragons": 8626, "organizer": 19012, "aba": 19557, "colin": 6972, "refused": 4188, "darker": 9904, "ge": 16216, "nest": 9089, "recruits": 15024, "##ption": 16790, "fourier": 26899, "eaten": 8828, "activists": 10134, "##cho": 9905, "##eto": 18903, "##feng": 24383, "breaths": 12938, "arcadia": 25178, "##42": 20958, "mcdonald": 9383, "[unused783]": 788, "painted": 4993, "##sies": 14625, "experience": 3325, "retaliation": 18695, "##itated": 15198, "curiously": 16484, "##wley": 20609, "##ll": 3363, "##charged": 22620, "tray": 11851, "modern": 2715, "sofa": 10682, "intrinsic": 23807, "section": 2930, "combination": 5257, "2000s": 8876, "##p": 2361, "filling": 8110, "log": 8833, "cheerfully": 27403, "requirement": 9095, "negatively": 19762, "philippe": 11169, "nonsense": 14652, "feng": 19004, "least": 2560, "crawford": 10554, "##borg": 11755, "sealed": 10203, "interesting": 5875, "##atory": 14049, "crowley": 20748, "aegean": 27198, "##dridge": 21482, "cite": 21893, "shooter": 13108, "informal": 11900, "theory": 3399, "himself": 2370, "##\u5742": 30329, "##\u8033": 30463, "nilsson": 29376, "tragic": 13800, "wept": 24966, "m\u00b2": 7030, "##ilia": 27861, "lifestyle": 9580, "slow": 4030, "u2": 23343, "regis": 20588, "potion": 26722, "crotch": 28629, "mantle": 16019, "chichester": 23406, "northbound": 20055, "##ker": 5484, "##\u0939": 29875, "fabio": 25616, "##rnet": 26573, "[unused731]": 736, "myers": 13854, "##rier": 16252, "chopped": 24881, "##urs": 9236, "##\u5343": 30310, "beg": 11693, "excused": 28512, "fences": 21549, "bringing": 5026, "paddy": 16063, "fiba": 13651, "##ilation": 29545, "laurel": 11893, "##\u798f": 30452, "astonishment": 23819, "ab": 11113, "weren": 4694, "ninth": 6619, "##escu": 19434, "efforts": 4073, "withdrawing": 21779, "##werk": 29548, "skirt": 9764, "##elo": 18349, "lithuanian": 10333, "shaman": 23610, "bautista": 27845, "privately": 9139, "enforcing": 27455, "mario": 7986, "carr": 12385, "practices": 6078, "106": 10114, "aggravated": 25817, "utilization": 27891, "##elis": 29282, "##pen": 11837, "forgive": 9641, "hector": 10590, "##gina": 20876, "amplifiers": 28633, "clown": 15912, "##lli": 6894, "spanish": 3009, "straining": 21366, "bookstore": 21785, "fluent": 19376, "taste": 5510, "\u2084": 1551, "##\u0631": 17149, "whose": 3005, "hatch": 11300, "goddamn": 16477, "medicine": 4200, "week": 2733, "aroused": 18391, "sell": 5271, "hades": 23003, "downfall": 22252, "suggestions": 15690, "posted": 6866, "##\u00bb": 29663, "[unused722]": 727, "beneath": 4218, "##oons": 27174, "##rang": 24388, "##nish": 24014, "domingo": 15586, "chile": 7029, "sol": 14017, "pulled": 2766, "wb": 25610, "##\u10d9": 29982, "[unused201]": 206, "vaughan": 14461, "nanjing": 21455, "verve": 29230, "programmes": 8497, "monaco": 14497, "[unused527]": 532, "hammered": 25756, "mechanics": 9760, "creeks": 24974, "1980": 3150, "eddie": 5752, "rai": 15547, "mounts": 19363, "therefore": 3568, "jacqueline": 17551, "blackened": 25788, "courthouse": 10816, "[unused887]": 892, "tactics": 9887, "mainz": 19876, "##hita": 23935, "santa": 4203, "cassette": 13903, "enrolled": 8302, "skate": 17260, "nm": 13221, "taiwan": 6629, "##47": 22610, "stocked": 24802, "translated": 5421, "dalai": 28511, "[unused622]": 627, "konstantin": 23989, "##rangle": 21476, "latvia": 12429, "york": 2259, "raj": 11948, "[unused833]": 838, "armory": 24139, "[unused906]": 911, "incarnation": 15715, "creative": 5541, "processed": 13995, "indefinite": 25617, "mongolia": 13906, "innovation": 8144, "##\u00f8y": 27688, "vo": 29536, "anya": 21728, "redskins": 17461, "psychologists": 25428, "crisis": 5325, "mclaughlin": 23720, "##lom": 21297, "josef": 12947, "auditory": 28042, "ignatius": 26841, "\u00a5": 1071, "cars": 3765, "##aking": 15495, "springfield": 10493, "apprentice": 13357, "##test": 22199, "kenneth": 8856, "goods": 5350, "battalions": 10157, "saddam": 24111, "29": 2756, "[unused879]": 884, "##ca": 3540, "moss": 10636, "albert": 4789, "herr": 23506, "##nal": 12032, "45th": 24634, "motion": 4367, "tanaka": 21829, "guardians": 14240, "grief": 9940, "sorting": 22210, "236": 23593, "##zawa": 19708, "prospects": 16746, "##pee": 28084, "relates": 14623, "##ered": 6850, "1939": 3912, "stationary": 17337, "elevator": 7764, "describe": 6235, "avail": 24608, "##erton": 20995, "[unused186]": 191, "##mit": 22930, "##\u09a6": 29900, "\u2660": 1623, "1661": 24046, "because": 2138, "donetsk": 29151, "make": 2191, "heart": 2540, "institut": 17126, "watt": 15231, "##eed": 13089, "his": 2010, "teaches": 12011, "[unused91]": 92, "##\u30bb": 30234, "corporations": 11578, "nominate": 23388, "proposed": 3818, "##pire": 20781, "propagation": 20594, "mind": 2568, "salary": 10300, "\u0430": 1180, "otter": 22279, "\u2502": 1616, "suites": 19796, "riddle": 21834, "pendleton": 24349, "playback": 18245, "handbook": 14812, "base": 2918, "containing": 4820, "regularly": 5570, "canal": 5033, "##act": 18908, "misunderstanding": 24216, "##bor": 12821, "crawley": 28854, "owning": 19273, "##joy": 24793, "403": 28203, "\u0dba": 1404, "styles": 6782, "performed": 2864, "archdiocese": 12658, "eastenders": 28936, "parties": 4243, "submerged": 13563, "##yst": 27268, "/": 1013, "monthly": 7058, "maharaja": 21609, "bleeding": 9524, "exceed": 13467, "treatments": 13441, "onion": 20949, "##tc": 13535, "humans": 4286, "traversed": 27797, "\uff09": 1988, "intercity": 20651, "providence": 11293, "newcastle": 8142, "prominence": 12144, "trophy": 5384, "[unused741]": 746, "regained": 11842, "cuffs": 24347, "##18": 15136, "occupational": 16928, "peng": 26473, "utterly": 12580, "hooves": 28399, "swearing": 25082, "weakness": 11251, "indus": 27746, "ashe": 13402, "##shot": 19040, "##\u4e4b": 30275, "6000": 25961, "buenos": 9204, "systematic": 11778, "[unused405]": 410, "doe": 18629, "##;": 29628, "indies": 9429, "niche": 18111, "##\u1d30": 30028, "racial": 5762, "##liffe": 27931, "arthur": 4300, "##\u0438\u0438": 15414, "past": 2627, "harta": 26283, "##jal": 25787, "##ya": 3148, "[unused699]": 704, "potassium": 18044, "ornaments": 24005, "[unused216]": 221, "sabrina": 21876, "costello": 21015, "nipples": 28124, "1987": 3055, "smashwords": 25151, "faltered": 26015, "ang": 17076, "slabs": 28761, "interpreter": 19555, "##tucket": 29315, "inevitable": 13418, "retain": 9279, "muir": 23110, "muscled": 24909, "water": 2300, "xp": 26726, "enamel": 29484, "pristine": 27375, "jordan": 5207, "physicist": 13702, "site": 2609, "tallinn": 21169, "##nagar": 14346, "city": 2103, "##\u044a": 29755, "classed": 27811, "pi": 14255, "##let": 7485, "##urian": 29091, "thy": 15177, "offering": 5378, "playground": 14705, "##\u56fd": 30325, "knowles": 22815, "##rting": 24097, "admiralty": 14179, "shiny": 12538, "canadian": 3010, "locked": 5299, "impress": 17894, "pursued": 9505, "remains": 3464, "differently": 11543, "limb": 15291, "sportsman": 27168, "scored": 3195, "##apple": 23804, "sheppard": 24976, "blockbuster": 27858, "schedules": 20283, "vaccines": 28896, "hulk": 16009, "[unused508]": 513, "hutton": 20408, "237": 23297, "activate": 20544, "##ardo": 24649, "##gul": 24848, "##rate": 11657, "cooke": 16546, "##cen": 27524, "int": 20014, "corpses": 18113, "protector": 16167, "##ol": 4747, "redesignated": 11836, "als": 25520, "activities": 3450, "along": 2247, "\u6bd4": 1890, "##ti": 3775, "gordon": 5146, "conspiracy": 9714, "##ats": 11149, "ad": 4748, "macro": 26632, "##\u1d35": 30029, "corey": 18132, "delivery": 6959, "vodka": 21092, "consul": 11801, "##\u3063": 30189, "crystal": 6121, "pantry": 27796, "##rbin": 27366, "stanza": 29509, "lateral": 11457, "##or": 2953, "##tries": 21011, "nominees": 17853, "zimbabwe": 11399, "elliott": 9899, "booster": 23715, "##hy": 10536, "\u044d": 1208, "thirty": 4228, "dan": 4907, "inventory": 12612, "referred": 3615, "decreasing": 16922, "##iting": 15402, "satisfaction": 9967, "dans": 18033, "threat": 5081, "brother": 2567, "national": 2120, "n": 1050, "half": 2431, "willem": 18811, "##iv": 12848, "##evich": 16277, "also": 2036, "##bation": 23757, "sins": 15516, "france": 2605, "watched": 3427, "pam": 14089, "could": 2071, "[unused183]": 188, "airfield": 9087, "quasi": 17982, "##lets": 13461, "sakura": 23066, "##stand": 21515, "liberals": 13350, "cornerback": 26857, "mon": 12256, "##lands": 8653, "sparked": 13977, "##\u2ea9": 30158, "crush": 10188, "##gger": 13327, "reduces": 13416, "##kill": 15872, "2015": 2325, "[unused150]": 155, "ssr": 20896, "blackpool": 17444, "sanitary": 25480, "sage": 10878, "rte": 20375, "dave": 4913, "shaggy": 25741, "camel": 19130, "222": 19015, "psyche": 25774, "traveler": 20174, "entertainment": 4024, "uncomfortable": 8796, "tearing": 13311, "150": 5018, "##\u0561": 29766, "[unused125]": 130, "saskatchewan": 10068, "adler": 17969, "\u0917": 1317, "##rano": 20770, "hissed": 11402, "supervising": 21238, "ming": 11861, "okay": 3100, "anger": 4963, "gloucester": 13370, "##balls": 18510, "nair": 22525, "unspecified": 25851, "crimean": 20516, "afterwards": 5728, "mothers": 10756, "[unused482]": 487, "swirled": 19171, "mla": 18619, "altitudes": 21973, "cookies": 16324, "colton": 21000, "##ayo": 28852, "plum": 22088, "lissa": 20244, "au": 8740, "deaf": 12419, "surprisingly": 10889, "##elt": 20042, "bid": 7226, "chloride": 19057, "traditional": 3151, "milano": 21613, "cervical": 28711, "##\u10e3": 29990, "lack": 3768, "cebu": 23312, "spire": 19823, "smarter": 25670, "[SEP]": 102, "##\u7537": 30438, "##tat": 29336, "zur": 17924, "woodland": 11051, "cbn": 21824, "jake": 5180, "hertfordshire": 18889, "##ajan": 28869, "contemplated": 23133, "agra": 29542, "ventilation": 19536, "mcdowell": 25005, "##om": 5358, "oval": 9242, "interim": 9455, "##ifier": 18095, "cory": 18342, "roberta": 23455, "reporting": 7316, "reptiles": 20978, "roofs": 15753, "##ives": 24653, "nineteenth": 9137, "[unused382]": 387, "occupation": 6139, "laps": 10876, "baba": 14208, "1683": 27414, "[unused700]": 705, "evolution": 6622, "omega": 14827, "\u0e1e": 1414, "nutritional": 28268, "##ball": 7384, "croats": 26222, "factual": 25854, "vibrating": 24987, "convinced": 6427, "publishes": 12466, "##hus": 9825, "len": 18798, "cappella": 23013, "crab": 18081, "##gne": 10177, "roar": 11950, "##ial": 4818, "##cic": 19053, "##dog": 16168, "[unused542]": 547, "fridays": 26587, "came": 2234, "##sling": 28886, "gabrielle": 16988, "accessible": 7801, "##\u222a": 30132, "menace": 19854, "nichols": 15746, "channel": 3149, "monastic": 17361, "gang": 6080, "corresponds": 14788, "sahib": 23513, "app": 10439, "romney": 19615, "ancestors": 10748, "socialist": 6102, "y": 1061, "[unused247]": 252, "silly": 10021, "occurrences": 27247, "inducing": 29290, "dinosaurs": 18148, "wee": 16776, "os": 9808, "1767": 21502, "anhalt": 27088, "robot": 8957, "nos": 16839, "diverse": 7578, "hillsborough": 29330, "founded": 2631, "pornography": 19378, "##nio": 27678, "hines": 25445, "[unused409]": 414, "panchayat": 20079, "vice": 3580, "rebel": 8443, "healthy": 7965, "219": 20636, "##kala": 26907, "emitted": 22627, "##lar": 8017, "##roids": 29514, "resisted": 13335, "benches": 19571, "##ins": 7076, "loser": 10916, "fucked": 21746, "atari": 18978, "1720": 23535, "aggressive": 9376, "8th": 5893, "surge": 12058, "prints": 11204, "lucas": 6326, "tobias": 16858, "fleeing": 14070, "\u05d7": 1248, "juicy": 28900, "your": 2115, "titles": 4486, "via": 3081, "taking": 2635, "\u5bbf": 1826, "disagreements": 23145, "publish": 10172, "stratford": 17723, "##\u110a": 29998, "##wani": 29092, "newer": 10947, "[unused451]": 456, "hyundai": 25983, "jokes": 13198, "hygiene": 19548, "miriam": 16925, "1777": 16144, "pastor": 9220, "believe": 2903, "tightening": 18711, "australians": 15739, "##bbly": 24200, "##zone": 15975, "loans": 10940, "bayern": 21350, "hiroshi": 26882, "regional": 3164, "addressing": 12786, "##hian": 14204, "squid": 26852, "##rson": 17753, "##pole": 15049, "applause": 20737, "\u767a": 1914, "cadets": 15724, "\u0d9a": 1403, "cent": 9358, "span": 8487, "slumped": 14319, "grandson": 7631, "angered": 18748, "electron": 10496, "smuggling": 19535, "sided": 11536, "##uit": 14663, "poetry": 4623, "mechanic": 15893, "##hold": 12640, "provincial": 4992, "##cle": 14321, "biennale": 21140, "##hly": 27732, "##\u201a": 30057, "neill": 11511, "etc": 4385, "ian": 4775, "##\u3048": 30175, "gearbox": 22227, "##ted": 3064, "##ul": 5313, "give": 2507, "gregorian": 25847, "##bbon": 27684, "winced": 15574, "subsequently": 3525, "worldwide": 4969, "##lius": 15513, "advancement": 12607, "[unused233]": 238, "violation": 11371, "musicians": 5389, "ruin": 10083, "heal": 11005, "catches": 11269, "gaze": 3657, "\u090f": 1314, "element": 5783, "purcell": 26429, "haji": 28174, "henry": 2888, "sediments": 20476, "blackwell": 18776, "##aya": 12186, "answering": 10739, "predictable": 21425, "founders": 8759, "inappropriate": 15884, "pointedly": 28713, "seine": 16470, "singers": 8453, "blasting": 26239, "immature": 26838, "economists": 22171, "neighborhoods": 11681, "incline": 27461, "##logical": 9966, "analytical": 17826, "##isha": 24032, "m3": 29061, "goose": 13020, "surveillance": 9867, "analyze": 17908, "readings": 15324, "job": 3105, "clues": 15774, "rested": 8614, "##mith": 19864, "##\u02bc": 29712, "gypsy": 16006, "pittsburgh": 6278, "apart": 4237, "coach": 2873, "informally": 21858, "operatives": 25631, "flooding": 9451, "hub": 9594, "adversary": 27248, "crossed": 4625, "##ancy": 11656, "degraded": 26131, "detached": 12230, "pull": 4139, "variations": 8358, "instituto": 22596, "fourth": 2959, "##wi": 9148, "passing": 4458, "\u208d": 1558, "defensive": 5600, "lamar": 19756, "inspected": 20456, "\u044b": 1206, "brigadier": 9900, "indy": 18214, "schubert": 24645, "facebook": 9130, "daytona": 18226, "1810": 11786, "citrus": 20418, "devon": 7614, "bingham": 24579, "nokia": 22098, "hearings": 19153, "makeshift": 19368, "spring": 3500, "hospitals": 8323, "capture": 5425, "pt": 13866, "caracas": 21675, "explosive": 11355, "tavi": 24283, "blazing": 17162, "accommodation": 11366, "coarse": 20392, "30": 2382, "##\u5cf6": 30359, "amphibious": 16182, "chasing": 11777, "australian": 2827, "[unused450]": 455, "advised": 9449, "[unused215]": 220, "superstructure": 28391, "eggs": 6763, "gilles": 21717, "disconnected": 23657, "rigorous": 20001, "1610": 25800, "trafford": 26894, "[unused232]": 237, "dimly": 25361, "newmarket": 22489, "humor": 8562, "##oir": 21165, "##ering": 7999, "lancaster": 10237, "hartley": 20955, "ciudad": 20759, "compound": 7328, "1704": 27769, "coven": 25248, "schumacher": 22253, "touching": 7244, "\u00b5": 1085, "majors": 15279, "daddy": 8600, "minerva": 27383, "vacated": 15348, "##ivating": 17441, "towers": 7626, "juniors": 16651, "gotten": 5407, "##ulation": 9513, "mixture": 8150, "oppose": 15391, "remember": 3342, "##\u7530": 30437, "boyer": 23456, "[unused626]": 631, "count": 4175, "austrian": 6161, "dispersal": 27602, "hostility": 18258, "rotating": 13618, "730": 28004, "##lich": 18337, "bluegrass": 21286, "hushed": 24033, "gradient": 17978, "calderon": 28129, "nickname": 8367, "destroyed": 3908, "abstract": 10061, "lobe": 21833, "oppressive": 28558, "hydraulic": 14761, "simulate": 26633, "##holders": 17794, "ae": 29347, "gunter": 27834, "kylie": 9008, "skaters": 24789, "##\u03c6": 29736, "[unused455]": 460, "compelling": 17075, "mug": 14757, "stabbing": 21690, "##tain": 18249, "phi": 13569, "leon": 6506, "##trix": 29184, "herbal": 27849, "im": 10047, "saskatoon": 25447, "shea": 16994, "2001": 2541, "dude": 12043, "schemes": 11683, "precursor": 14988, "horrors": 22812, "assure": 14306, "##cuting": 29163, "##rent": 22787, "exercising": 28428, "211": 19235, "reason": 3114, "erupted": 12591, "null": 19701, "norma": 20692, "##ics": 6558, "davey": 20436, "1924": 4814, "wax": 13844, "mold": 18282, "meals": 12278, "seaman": 21626, "swallowing": 18468, "supervisor": 12366, "##working": 21398, "##dot": 27364, "account": 4070, "##gnon": 26977, "electrically": 29103, "phone": 3042, "energy": 2943, "prussian": 10734, "socrates": 26772, "##hosh": 26643, "[unused223]": 228, "[unused438]": 443, "renewable": 13918, "##ely": 26006, "##oom": 17650, "hangul": 19051, "lords": 8140, "\u3080": 1679, "amsterdam": 7598, "147": 16471, "arabs": 14560, "u": 1057, "zoe": 11199, "##pers": 7347, "transferring": 14391, "orgasm": 13892, "deutsche": 11605, "dani": 19522, "woodward": 19133, "diamonds": 11719, "savanna": 22323, "##hip": 5605, "[unused43]": 44, "blinding": 19709, "##uld": 21285, "householder": 7536, "formally": 6246, "wilkes": 20635, "presbyterian": 10133, "[unused954]": 959, "##of": 11253, "judd": 20128, "forehead": 6130, "morse": 17107, "portraying": 17274, "unearthed": 27422, "worsened": 27622, "sam": 3520, "mika": 27857, "soft": 3730, "casts": 23942, "##b": 2497, "unfinished": 14342, "ipa": 24531, "airfields": 25278, "[unused437]": 442, "##pad": 15455, "volunteered": 14382, "##tham": 22536, "##tops": 25181, "critic": 6232, "concept": 4145, "##len": 7770, "amman": 25703, "flickered": 15999, "taboo": 27505, "blackberry": 25935, "[unused258]": 263, "aviator": 24035, "##enberg": 11029, "evolved": 7964, "decreased": 10548, "routines": 23964, "novelist": 9974, "cong": 26478, "butterflies": 15023, "st": 2358, "assassins": 18364, "tasted": 12595, "renovated": 10601, "contexts": 18046, "subsidies": 21762, "fortress": 7841, "thumped": 28963, "tormented": 29026, "##vil": 14762, "[unused978]": 983, "swedish": 4467, "certainly": 5121, "##lord": 19980, "smelled": 9557, "condemning": 28525, "beacon": 14400, "devastated": 13879, "mobilized": 27526, "easier": 6082, "\u05df": 1256, "##idia": 29342, "bryant": 12471, "namely": 8419, "weaknesses": 21775, "##uring": 12228, "announcements": 25674, "forgotten": 6404, "##oides": 25064, "genome": 13458, "void": 11675, "incentives": 21134, "rockets": 12496, "##tan": 5794, "graduated": 3852, "plantation": 10065, "frontier": 8880, "##rona": 26788, "\u2020": 1526, "##chment": 22729, "jorge": 10853, "bodied": 22549, "inhibitor": 24054, "##bron": 21337, "ni": 9152, "264": 21611, "rowland": 20539, "teresa": 12409, "mart": 20481, "colorful": 14231, "cart": 11122, "##kers": 11451, "lame": 20342, "overdose": 26641, "##41": 23632, "conception": 13120, "rushing": 8375, "immersed": 26275, "[unused30]": 31, "versailles": 18346, "##tric": 12412, "flowers": 4870, "##ves": 6961, "##\u20a9": 30101, "forged": 16158, "##page": 13704, "andes": 18096, "filly": 22062, "##rok": 27923, "[unused319]": 324, "[unused740]": 745, "c2": 29248, "england": 2563, "draft": 4433, "superintendent": 9133, "statistical": 7778, "piedmont": 18873, "bubbling": 25054, "##\u062a": 29817, "worn": 6247, "##stone": 9221, "graphs": 19287, "showing": 4760, "mathew": 25436, "panorama": 23652, "ruled": 5451, "needed": 2734, "##iom": 18994, "\u09a1": 1360, "\u209c": 1571, "##9th": 25660, "answer": 3437, "surplus": 15726, "contracts": 8311, "task": 4708, "[unused41]": 42, "##\u0926": 29861, "[unused189]": 194, "dungeons": 20264, "agitation": 22356, "2nd": 3416, "##din": 8718, "manipulate": 17708, "angela": 10413, "decidedly": 27873, "\u0435": 1185, "grins": 20237, "cdp": 8561, "285": 21777, "compounds": 10099, "cables": 15196, "##minated": 26972, "cancers": 25409, "loaded": 8209, "##se": 3366, "significant": 3278, "dealers": 16743, "explode": 15044, "knots": 9439, "##rov": 12298, "print": 6140, "##life": 15509, "instinctively": 16607, "curtis": 9195, "obtaining": 11381, "##cytes": 27321, "awaited": 19605, "china": 2859, "champions": 3966, "lynne": 26938, "ousted": 28368, "shows": 3065, "survivor": 12084, "infiltrate": 29543, "hungry": 7501, "sandwiches": 22094, "trafficking": 11626, "##ivo": 20984, "tatum": 25913, "paolo": 14174, "##one": 5643, "gemini": 21424, "maison": 26420, "pedersen": 27409, "\u795e": 1925, "##caster": 25490, "##md": 26876, "[unused671]": 676, "widow": 7794, "380": 17014, "v8": 15754, "##yne": 9654, "isabella": 10323, "contributor": 12130, "geese": 28519, "nas": 17235, "[unused435]": 440, "tightened": 8371, "bennett": 8076, "blue": 2630, "due": 2349, "descent": 6934, "twilight": 13132, "sharif": 20351, "barrage": 19359, "compensated": 29258, "johan": 13093, "##lu": 7630, "tabitha": 21581, "\u0632": 1281, "##un": 4609, "##ocation": 23909, "punches": 17957, "unveiled": 11521, "##tula": 28970, "134": 15170, "zachary": 19474, "replace": 5672, "##\u056c": 29773, "archaeology": 12009, "dates": 5246, "##nsk": 25564, "##zano": 24147, "grimly": 22561, "marriott": 26490, "traced": 9551, "ernesto": 22428, "hearted": 18627, "##ds": 5104, "licensing": 13202, "donations": 11440, "##ingly": 15787, "tariff": 23234, "##tre": 7913, "1714": 25241, "##rin": 6657, "imposing": 16625, "leaf": 7053, "upright": 10051, "zhou": 14367, "##sell": 23836, "bullock": 25200, "##uga": 16377, "syriac": 24109, "##flow": 12314, "##uce": 18796, "audit": 15727, "##ogo": 22844, "embroidered": 23590, "##inae": 16414, "drenched": 25265, "##\u7cf9": 30460, "lagos": 16738, "died": 2351, "manners": 14632, "treated": 5845, "##dara": 25329, "##ress": 8303, "##fine": 23460, "enzyme": 9007, "twentieth": 9086, "vienna": 6004, "##beam": 28302, "technicians": 20202, "##aea": 21996, "pratt": 13208, "##\u093f": 29877, "achieve": 6162, "line": 2240, "car": 2482, "dumping": 23642, "snorted": 15235, "africans": 18076, "[unused105]": 110, "overland": 21400, "architecture": 4294, "yoga": 13272, "villains": 16219, "rated": 6758, "##is": 2483, "barons": 21487, "accordance": 10388, "litres": 25783, "synod": 15374, "##inging": 23180, "huffington": 26149, "bal": 28352, "##logram": 24915, "banished": 21319, "huge": 4121, "montagu": 26241, "##66": 28756, "interdisciplinary": 18593, "connected": 4198, "qualification": 8263, "voted": 5444, "counter": 4675, "high": 2152, "luke": 5355, "##\u0578": 29779, "staples": 24533, "influenced": 5105, "ore": 10848, "melinda": 23721, "communist": 4750, "congregation": 7769, "furry": 28662, "air": 2250, "moreno": 17921, "hurricane": 7064, "biologist": 21477, "1814": 10977, "&": 1004, "##bau": 27773, "deemed": 8357, "pioneering": 13280, "dashed": 18198, "thirties": 26313, "##bright": 26614, "bruise": 24851, "[unused330]": 335, "viruses": 18191, "aug": 15476, "##rky": 15952, "[unused138]": 143, "##sg": 28745, "mythology": 11327, "empowerment": 23011, "seamus": 24993, "debate": 5981, "pearce": 19560, "masked": 16520, "justify": 16114, "shook": 3184, "intention": 6808, "surveyed": 12876, "##\u2282": 30137, "##horn": 9769, "neat": 15708, "diminished": 15911, "sino": 19432, "##cia": 7405, "clements": 28572, "##tidae": 21861, "molecules": 10737, "##yama": 11613, "##ont": 12162, "khyber": 28416, "##unas": 23904, "canvas": 10683, "##hen": 10222, "soprano": 10430, "##phile": 24862, "divided": 4055, "sabre": 22002, "skipped": 16791, "quiz": 19461, "arrow": 8612, "execute": 15389, "tomatoes": 12851, "smart": 6047, "bothering": 17067, "qualify": 7515, "maria": 3814, "##river": 24352, "shifters": 21537, "\u0629": 1272, "##\u6a39": 30410, "unicorn": 21830, "##tura": 27431, "cadillac": 20425, "presidency": 8798, "covert": 19813, "arthritis": 27641, "spelling": 11379, "zombies": 14106, "shifted": 5429, "filipino": 10275, "proficient": 27029, "##oit": 28100, "##ys": 7274, "intend": 13566, "shareholders": 15337, "336": 27954, "screens": 12117, "colorado": 5169, "murdering": 21054, "code": 3642, "dinosaur": 15799, "ives": 23945, "\u30a1": 1692, "##ilised": 21758, "##ille": 10484, "##rred": 20529, "244": 24194, "[unused981]": 986, "##dini": 26039, "color": 3609, "nearly": 3053, "sniffing": 27646, "ci": 25022, "reich": 14365, "reacting": 24868, "1644": 23477, "\u82f1": 1941, "sonata": 14681, "faith": 4752, "##ok": 6559, "sidekick": 29240, "##cious": 18436, "expressing": 14026, "[unused140]": 145, "century": 2301, "income": 3318, "swamps": 22722, "ahmedabad": 27249, "##nction": 27989, "universal": 5415, "##mund": 25574, "aus": 17151, "kant": 26044, "profession": 9518, "ana": 9617, "claimed": 3555, "harvest": 11203, "grimaced": 19014, "belle": 9852, "cargo": 6636, "doi": 9193, "dinah": 26562, "[unused817]": 822, "dax": 27116, "1899": 6166, "##roud": 21332, "damaging": 15011, "renaissance": 8028, "\u1d2e": 1491, "[unused842]": 847, "##sti": 16643, "walker": 5232, "stretched": 7121, "quantitative": 20155, "profits": 11372, "nominal": 15087, "##relli": 22948, "\u00b9\u2044\u2082": 18728, "timor": 19746, "neither": 4445, "lilith": 25576, "southbound": 19751, "prescribed": 16250, "anniversary": 5315, "##free": 23301, "\u6d77": 1902, "friday": 5958, "willed": 22705, "##erry": 19826, "frequencies": 13139, "somehow": 5064, "being": 2108, "eligibility": 11395, "seek": 6148, "visibly": 19397, "comforting": 16334, "overseas": 6931, "involved": 2920, "\u0b95": 1382, "110": 7287, "habit": 10427, "randolph": 13031, "furnace": 17533, "undergone": 17215, "oblast": 10379, "hammersmith": 28420, "disadvantage": 20502, "accreditation": 14893, "carroll": 10767, "##vier": 14356, "byrne": 14928, "##rling": 22036, "nightly": 22390, "janeiro": 11497, "\u0bc8": 1399, "envelope": 11255, "elite": 7069, "rover": 13631, "govt": 22410, "00pm": 27995, "enoch": 28178, "cai": 29080, "syllable": 16353, "stressed": 13233, "\u98df": 1978, "##tila": 26065, "arms": 2608, "##ishly": 19983, "##pose": 20688, "plaid": 26488, "kitchen": 3829, "proximity": 10039, "apologized": 17806, "singapore": 5264, "capitals": 15433, "rural": 3541, "lea": 12203, "yukon": 19898, "leger": 26523, "abruptly": 9225, "productive": 13318, "truman": 15237, "rudder": 24049, "frame": 4853, "reform": 5290, "list": 2862, "##tained": 28055, "brandt": 19407, "domination": 17882, "\u0f58": 1432, "##lia": 6632, "interpretations": 15931, "wil": 19863, "melted": 12501, "dialects": 11976, "voices": 5755, "[unused57]": 58, "\u2044": 1535, "confederate": 8055, "vivid": 14954, "giles": 13287, "##\u0447": 29752, "##ssel": 21218, "rapid": 5915, "treatment": 3949, "cafe": 7668, "dolores": 21544, "zheng": 20985, "prohibits": 25822, "scratched": 15047, "fall": 2991, "causeway": 23336, "desperation": 15561, "001": 25604, "constabulary": 23791, "holy": 4151, "##lidae": 21595, "delicate": 10059, "620": 23612, "bridget": 19218, "published": 2405, "squeeze": 11025, "##j": 3501, "fulham": 21703, "shortages": 22623, "##deh": 25383, "stereotypes": 22807, "quit": 8046, "repay": 24565, "##eras": 24140, "compilation": 6268, "puzzle": 11989, "technique": 6028, "##qvist": 28705, "##nated": 23854, "chefs": 27828, "##lou": 23743, "legged": 15817, "modified": 6310, "##di": 4305, "milton": 9660, "infinitely": 25773, "graded": 21976, "whole": 2878, "sees": 5927, "##uaries": 22579, "[unused752]": 757, "trunks": 20509, "elliptical": 27213, "clawed": 22544, "##ep": 13699, "parasite": 21198, "stretching": 10917, "liver": 11290, "spectroscopy": 25458, "troop": 10123, "##\u2ebc": 30159, "steamed": 21734, "sinclair": 11881, "rod": 8473, "##urt": 19585, "innovative": 9525, "twitter": 10474, "##\u0ba4": 29921, "rhythm": 6348, "violinist": 16609, "programs": 3454, "collaborator": 18843, "shanghai": 8344, "[unused696]": 701, "injunction": 22928, "##ndra": 17670, "symbol": 6454, "deported": 17929, "susquehanna": 26361, "appointments": 14651, "\u4f1a": 1763, "playoff": 7808, "recovery": 7233, "##pher": 27921, "deutschland": 28668, "dedicated": 4056, "remnant": 19614, "##ge": 3351, "imaging": 12126, "devlin": 24389, "##sume": 23545, "loudly": 9928, "rebounds": 11049, "##ad": 4215, "##du": 8566, "lieu": 22470, "maker": 9338, "##mie": 9856, "levy": 12767, "##rt": 5339, "refining": 28596, "##haw": 14238, "patriarch": 12626, "predecessors": 16372, "##uan": 13860, "##shi": 6182, "saunders": 15247, "transitional": 17459, "##eley": 22352, "steiner": 21264, "##osi": 20049, "reddy": 18998, "jackie": 9901, "\u5fd7": 1851, "hurting": 11878, "nl": 17953, "tipping": 25486, "neighbours": 14754, "ribbons": 22688, "fictitious": 23577, "operate": 5452, "oversees": 22558, "prequel": 28280, "##br": 19892, "metres": 3620, "killers": 15978, "suns": 19352, "tuition": 15413, "walk": 3328, "##wo": 12155, "drinking": 5948, "fund": 4636, "##lit": 15909, "parenting": 28586, "seekers": 24071, "##gue": 9077, "##tok": 18715, "##orin": 28741, "landowners": 20152, "tricked": 24929, "##vik": 13309, "cuisine": 12846, "##38": 22025, "realises": 25924, "##\u0289": 29697, "deed": 15046, "beck": 10272, "breeze": 9478, "thoughtful": 16465, "trademark": 11749, "plain": 5810, "multiplayer": 17762, "martinique": 29365, "[unused673]": 678, "[unused910]": 915, "uneven": 17837, "[unused606]": 611, "##go": 3995, "##lux": 25148, "purity": 18433, "princess": 4615, "\u1175": 1483, "performer": 9256, "trout": 13452, "drumming": 22980, "1844": 9730, "##\u201c": 30058, "retire": 11036, "shia": 20474, "15": 2321, "##fell": 23510, "cortex": 17132, "oleg": 25841, "##nery": 27415, "clifton": 16271, "##kulam": 28871, "orders": 4449, "[unused882]": 887, "diffusion": 19241, "nodded": 3368, "civil": 2942, "werewolf": 12797, "dj": 6520, "##usion": 14499, "##ari": 8486, "spartak": 28560, "freelance": 15919, "##nah": 15272, "stereo": 12991, "aston": 14327, "##\u20b9": 30104, "proprietor": 21584, "##ulin": 18639, "timothy": 10805, "1854": 8421, "beliefs": 9029, "actors": 5889, "[unused469]": 474, "cage": 7980, "nave": 12847, "scheduling": 19940, "ipswich": 15435, "willis": 12688, "roosevelt": 8573, "##unce": 17457, "##\u304f": 30179, "fulfilled": 16829, "populous": 20151, "##uda": 14066, "##oteric": 29112, "editorial": 8368, "struggles": 11785, "anti": 3424, "hamas": 22129, "##\u00b6": 29660, "differing": 16965, "crimson": 11466, "sucked": 8631, "botanic": 27761, "1651": 29077, "punjabi": 17498, "converts": 19884, "partially": 6822, "wanted": 2359, "roma": 12836, "contend": 27481, "\u09aa": 1367, "oldies": 26826, "idiots": 28781, "wounding": 27285, "patterson": 12424, "italics": 19408, "\u30e7": 1730, "cc": 10507, "warrington": 23051, "fitch": 26062, "continents": 17846, "bracelet": 19688, "##rke": 25074, "##\u1109": 29997, "operative": 12160, "1620": 24259, "generation": 4245, "kaufman": 23699, "##lwyn": 29287, "absent": 9962, "reflex": 22259, "kirby": 15129, "enzo": 26218, "1949": 4085, "sourced": 23184, "1828": 11517, "improvements": 8377, "carolina": 3792, "ma": 5003, "solved": 13332, "worried": 5191, "##head": 4974, "deteriorating": 28440, "##wire": 20357, "[unused197]": 202, "craft": 7477, "riff": 24808, "enhanced": 9412, "##ult": 11314, "sharon": 10666, "##yra": 19563, "##fen": 18940, "crafted": 19275, "fat": 6638, "jimi": 27624, "1935": 4437, "##\u0bbf": 29932, "tournaments": 8504, "\u05ea": 1267, "habits": 14243, "[unused729]": 734, "restricted": 7775, "streaked": 21276, "##\u0442": 22919, "##mont": 9629, "marble": 7720, "arena": 5196, "##hel": 16001, "pursuit": 8463, "easy": 3733, "saber": 25653, "##ses": 8583, "##jured": 26949, "\u30c8": 1714, "\u793e": 1924, "bolivian": 26075, "docked": 25727, "##\u026a": 29685, "valid": 9398, "##rta": 13320, "stammered": 28532, "##56": 26976, "midlands": 13256, "randall": 12813, "[unused798]": 803, "losses": 6409, "facilitates": 27777, "wen": 19181, "mastery": 26364, "[unused414]": 419, "primary": 3078, "royce": 14789, "\u0ba9": 1387, "excellent": 6581, "##ine": 3170, "mm": 3461, "##ifying": 11787, "cds": 14340, "\u2606": 1621, "shore": 5370, "bear": 4562, "motorsports": 20711, "##break": 23890, "disturb": 22995, "grunt": 20696, "individual": 3265, "dex": 20647, "bends": 23394, "crates": 27619, "situated": 4350, "designation": 8259, "chapters": 9159, "albums": 4042, "vegetables": 11546, "clandestine": 24450, "expansive": 25145, "zee": 23727, "##cured": 19405, "helpless": 13346, "lakeside": 28701, "283": 25504, "somalia": 14717, "astrid": 27376, "\u0458": 1214, "[unused653]": 658, "dumb": 12873, "westward": 15165, "safe": 3647, "clinton": 7207, "theologians": 29013, "cowboys": 11666, "voyage": 8774, "[unused829]": 834, "[unused406]": 411, "##yman": 17906, "\u2205": 1593, "approached": 5411, "eagle": 6755, "recommendations": 11433, "rallied": 24356, "stranded": 15577, "doctrine": 8998, "britain": 3725, "##grave": 12830, "49ers": 18156, "universe": 5304, "bi": 12170, "employed": 4846, "lawson": 14577, "##less": 3238, "incorporation": 16935, "wit": 15966, "[unused612]": 617, "##hi": 4048, "napoli": 29485, "lester": 14131, "dialogues": 22580, "rob": 6487, "meath": 26856, "luisa": 25412, "partnering": 27001, "textiles": 18762, "jade": 12323, "utter": 14395, "marquis": 13410, "##\u0640": 29832, "kenton": 25446, "transmitters": 26288, "don": 2123, "patel": 20455, "##\u611b": 30379, "##cher": 7474, "##\u6bd4": 30416, "contrary": 10043, "proteins": 8171, "##vinsky": 27704, "##\u77f3": 30448, "reputation": 5891, "1792": 13414, "paler": 24489, "shorter": 7820, "dealer": 11033, "originate": 21754, "limestone": 9771, "squeezing": 15328, "##insky": 20894, "tickets": 9735, "\u2663": 1624, "fiesta": 24050, "demons": 7942, "collapsing": 22724, "sketch": 11080, "headquartered": 9403, "investigative": 15025, "lucky": 5341, "asserted": 13647, "maha": 24404, "mute": 20101, "##phobia": 24920, "mattered": 13836, "present": 2556, "holt": 12621, "kidnap": 22590, "upton": 26900, "grimsby": 24470, "tunic": 23002, "[unused291]": 296, "pedal": 15749, "captive": 12481, "substantive": 27737, "retrieval": 26384, "column": 5930, "integrity": 11109, "vc": 18315, "shake": 6073, "311": 23532, "##thorpe": 22398, "claude": 8149, "investor": 14316, "conductor": 7589, "[unused84]": 85, "sport": 4368, "orientation": 10296, "bethlehem": 19360, "##posed": 19155, "voluntary": 10758, "##pired": 21649, "3": 1017, "visiting": 5873, "##fer": 7512, "school": 2082, "naacp": 26155, "##ost": 14122, "celebrities": 12330, "transcript": 24051, "year": 2095, "candy": 9485, "##ira": 7895, "emile": 17127, "patronage": 15694, "1842": 10008, "[unused179]": 184, "cabbage": 28540, "czechoslovakia": 12833, "function": 3853, "conglomerate": 22453, "odin": 26195, "\u5927": 1810, "[unused427]": 432, "window": 3332, "##bon": 11735, "concacaf": 22169, "##tler": 25091, "herb": 12810, "##ias": 7951, "understanding": 4824, "expert": 6739, "european": 2647, "pussy": 22418, "clans": 16411, "ratios": 21879, "memorabilia": 28663, "##mg": 24798, "jaw": 5730, "marsh": 9409, "warlock": 28861, "testosterone": 25937, "perched": 17335, "origin": 4761, "relies": 16803, "worker": 7309, "www": 7479, "granite": 9753, "[unused143]": 148, "##uchi": 15217, "abdullah": 14093, "philosophy": 4695, "trailer": 9117, "\u5b9a": 1822, "[unused1]": 2, "mom": 3566, "quota": 20563, "fitted": 7130, "couple": 3232, "normandy": 13298, "increase": 3623, "##\u090f": 29850, "\u0e21": 1415, "vinegar": 29387, "08": 5511, "twice": 3807, "destined": 16036, "arts": 2840, "procession": 14385, "wilson": 4267, "[unused269]": 274, "armament": 14410, "##tl": 19646, "ensign": 19890, "snack": 19782, "##yya": 19903, "willoughby": 24919, "argent": 23157, "\u0192": 1108, "wyatt": 12986, "nails": 10063, "melting": 13721, "enforcement": 7285, "british": 2329, "arrogant": 15818, "mono": 18847, "technical": 4087, "1908": 5316, "flemish": 15427, "parking": 5581, "sis": 24761, "tiny": 4714, "bound": 5391, "[unused876]": 881, "thorne": 14296, "arabian": 13771, "##\u6b4c": 30412, "seizing": 24681, "howl": 22912, "tailed": 14578, "[unused367]": 372, "procedure": 7709, "##\u9234": 30491, "possible": 2825, "predators": 12630, "ff": 21461, "##\u4eba": 30282, "scarred": 21985, "finest": 10418, "leningrad": 15930, "provoke": 27895, "\u5f18": 1843, "##lis": 6856, "stitch": 26035, "resented": 27188, "##\u20ac": 30102, "##gon": 7446, "cousin": 5542, "\u0459": 1215, "dub": 12931, "olivia": 7710, "solar": 5943, "gareth": 20243, "boxes": 8378, "siam": 25583, "student": 3076, "grind": 23088, "urgency": 19353, "##]": 29636, "##ades": 18673, "##olo": 12898, "##bbing": 23200, "marylebone": 28537, "hairy": 15892, "clamped": 18597, "staffordshire": 17052, "##dm": 22117, "##nea": 22084, "allah": 16455, "##\u0445": 29750, "sadie": 21330, "provider": 10802, "glaring": 16124, "tal": 21368, "conversations": 11450, "tombs": 16623, "varied": 9426, "seminal": 20603, "##nda": 8943, "unsigned": 27121, "enlisted": 9417, "wagner": 10304, "1752": 24736, "quickly": 2855, "apt": 26794, "amenities": 19870, "gram": 13250, "coherent": 18920, "owners": 5608, "longevity": 26906, "yd": 21076, "##~": 29643, "put": 2404, "bogota": 21240, "guidelines": 11594, "tapestry": 25213, "daze": 28918, "nodding": 11863, "carey": 11782, "##iam": 25107, "revolutionaries": 24517, "passage": 6019, "paradox": 20506, "liberalism": 26505, "maintain": 5441, "ritual": 8887, "##rada": 28510, "##aghan": 26685, "##ido": 13820, "##bird": 9001, "innsbruck": 28914, "stat": 28093, "bladder": 24176, "\u90ce": 1958, "juventus": 22760, "##tin": 7629, "conquered": 11438, "##trick": 22881, "ignorance": 18173, "propellers": 23405, "crushing": 14527, "mavericks": 28330, "unsuccessfully": 11551, "spokesman": 14056, "lawrence": 5623, "danielle": 18490, "oversized": 21698, "sausage": 24165, "mating": 15100, "pagan": 14318, "ozone": 26443, "##ston": 7106, "yves": 19687, "graveyard": 16685, "pays": 12778, "anastasia": 19447, "indicate": 5769, "races": 3837, "onstage": 23542, "##ow": 5004, "hydra": 26018, "joey": 9558, "pea": 26034, "hired": 5086, "peterborough": 17587, "mentally": 10597, "wolverhampton": 20085, "most": 2087, "translit": 28468, "warfare": 8309, "mandatory": 10915, "sculpture": 6743, "##\u2018": 30055, "##gan": 5289, "suppose": 6814, "314": 26257, "privatization": 23966, "ist": 21541, "##arts": 20591, "hair": 2606, "\u2202": 1592, "##ately": 28239, "##eaux": 25639, "##iation": 18963, "glucose": 18423, "dependent": 7790, "##erian": 27549, "roadside": 25131, "italianate": 25302, "reassuring": 21093, "drought": 14734, "jung": 11810, "\u0283": 1130, "backward": 8848, "uniquely": 20640, "frankfurt": 9780, "\u1107": 1460, "shrinking": 28375, "debating": 20767, "##\u5802": 30331,
[...]
